#include "magic_wand_model_data.h"

// We need to keep the data array aligned on some architectures.
#ifdef __has_attribute
#define HAVE_ATTRIBUTE(x) __has_attribute(x)
#else
#define HAVE_ATTRIBUTE(x) 0
#endif
#if HAVE_ATTRIBUTE(aligned) || (defined(__GNUC__) && !defined(__clang__))
#define DATA_ALIGN_ATTRIBUTE __attribute__((aligned(4)))
#else
#define DATA_ALIGN_ATTRIBUTE
#endif

// Paste the data of the char array in `src/model.cc` here
const unsigned char g_magic_wand_model_data[] DATA_ALIGN_ATTRIBUTE = {
    0x1c, 0x00, 0x00, 0x00, 0x54, 0x46, 0x4c, 0x33, 0x14, 0x00, 0x20, 0x00,
  0x04, 0x00, 0x08, 0x00, 0x0c, 0x00, 0x10, 0x00, 0x14, 0x00, 0x00, 0x00,
  0x18, 0x00, 0x1c, 0x00, 0x14, 0x00, 0x00, 0x00, 0x03, 0x00, 0x00, 0x00,
  0x18, 0x00, 0x00, 0x00, 0x2c, 0x00, 0x00, 0x00, 0xd8, 0x00, 0x00, 0x00,
  0x2c, 0x00, 0x00, 0x00, 0x80, 0x00, 0x00, 0x00, 0x78, 0x00, 0x00, 0x00,
  0x05, 0x00, 0x00, 0x00, 0x28, 0x07, 0x00, 0x00, 0x44, 0x06, 0x00, 0x00,
  0xbc, 0x03, 0x00, 0x00, 0xf8, 0x02, 0x00, 0x00, 0xac, 0x01, 0x00, 0x00,
  0x01, 0x00, 0x00, 0x00, 0xd0, 0x00, 0x00, 0x00, 0x14, 0x00, 0x00, 0x00,
  0xdc, 0x32, 0x00, 0x00, 0xd8, 0x32, 0x00, 0x00, 0xd0, 0x31, 0x00, 0x00,
  0x1c, 0x31, 0x00, 0x00, 0x74, 0x30, 0x00, 0x00, 0xfc, 0x2f, 0x00, 0x00,
  0x90, 0x2f, 0x00, 0x00, 0x40, 0x13, 0x00, 0x00, 0xec, 0x11, 0x00, 0x00,
  0x10, 0x10, 0x00, 0x00, 0xb4, 0x07, 0x00, 0x00, 0xb0, 0x32, 0x00, 0x00,
  0xac, 0x32, 0x00, 0x00, 0xa8, 0x32, 0x00, 0x00, 0xa4, 0x32, 0x00, 0x00,
  0xa0, 0x32, 0x00, 0x00, 0x9c, 0x32, 0x00, 0x00, 0x98, 0x32, 0x00, 0x00,
  0x94, 0x32, 0x00, 0x00, 0x3c, 0x00, 0x00, 0x00, 0x00, 0x00, 0x00, 0x00,
  0x01, 0x00, 0x00, 0x00, 0x0c, 0x00, 0x00, 0x00, 0x08, 0x00, 0x0c, 0x00,
  0x04, 0x00, 0x08, 0x00, 0x08, 0x00, 0x00, 0x00, 0x08, 0x00, 0x00, 0x00,
  0x13, 0x00, 0x00, 0x00, 0x13, 0x00, 0x00, 0x00, 0x6d, 0x69, 0x6e, 0x5f,
  0x72, 0x75, 0x6e, 0x74, 0x69, 0x6d, 0x65, 0x5f, 0x76, 0x65, 0x72, 0x73,
  0x69, 0x6f, 0x6e, 0x00, 0xb6, 0xce, 0xff, 0xff, 0x04, 0x00, 0x00, 0x00,
  0x10, 0x00, 0x00, 0x00, 0x31, 0x2e, 0x35, 0x2e, 0x30, 0x00, 0x00, 0x00,
  0x00, 0x00, 0x00, 0x00, 0x00, 0x00, 0x00, 0x00, 0x0f, 0x00, 0x00, 0x00,
  0x4d, 0x4c, 0x49, 0x52, 0x20, 0x43, 0x6f, 0x6e, 0x76, 0x65, 0x72, 0x74,
  0x65, 0x64, 0x2e, 0x00, 0x00, 0x00, 0x0e, 0x00, 0x18, 0x00, 0x04, 0x00,
  0x08, 0x00, 0x0c, 0x00, 0x10, 0x00, 0x14, 0x00, 0x0e, 0x00, 0x00, 0x00,
  0x14, 0x00, 0x00, 0x00, 0x5c, 0x00, 0x00, 0x00, 0x60, 0x00, 0x00, 0x00,
  0x64, 0x00, 0x00, 0x00, 0x84, 0x00, 0x00, 0x00, 0x12, 0x00, 0x00, 0x00,
  0x9c, 0x31, 0x00, 0x00, 0x2c, 0x31, 0x00, 0x00, 0x88, 0x30, 0x00, 0x00,
  0xe0, 0x2f, 0x00, 0x00, 0x38, 0x2f, 0x00, 0x00, 0xd4, 0x2e, 0x00, 0x00,
  0x6c, 0x2e, 0x00, 0x00, 0x18, 0x12, 0x00, 0x00, 0xbc, 0x10, 0x00, 0x00,
  0xe0, 0x0e, 0x00, 0x00, 0x0c, 0x06, 0x00, 0x00, 0x28, 0x05, 0x00, 0x00,
  0xe8, 0x03, 0x00, 0x00, 0x3c, 0x03, 0x00, 0x00, 0x98, 0x02, 0x00, 0x00,
  0xd4, 0x01, 0x00, 0x00, 0x10, 0x01, 0x00, 0x00, 0x84, 0x00, 0x00, 0x00,
  0x01, 0x00, 0x00, 0x00, 0x00, 0x00, 0x00, 0x00, 0x01, 0x00, 0x00, 0x00,
  0x11, 0x00, 0x00, 0x00, 0x08, 0x00, 0x00, 0x00, 0x74, 0x05, 0x00, 0x00,
  0x94, 0x04, 0x00, 0x00, 0x78, 0x03, 0x00, 0x00, 0xbc, 0x02, 0x00, 0x00,
  0x30, 0x02, 0x00, 0x00, 0x50, 0x01, 0x00, 0x00, 0xa8, 0x00, 0x00, 0x00,
  0x10, 0x00, 0x00, 0x00, 0x04, 0x00, 0x00, 0x00, 0x6d, 0x61, 0x69, 0x6e,
  0x00, 0x00, 0x00, 0x00, 0x7a, 0xff, 0xff, 0xff, 0x00, 0x00, 0x00, 0x09,
  0x04, 0x00, 0x00, 0x00, 0x1c, 0x00, 0x00, 0x00, 0x10, 0x00, 0x00, 0x00,
  0x04, 0x00, 0x00, 0x00, 0xb2, 0xcf, 0xff, 0xff, 0x00, 0x00, 0x80, 0x3f,
  0x01, 0x00, 0x00, 0x00, 0x11, 0x00, 0x00, 0x00, 0x01, 0x00, 0x00, 0x00,
  0x10, 0x00, 0x00, 0x00, 0xa0, 0xfa, 0xff, 0xff, 0x19, 0x00, 0x00, 0x00,
  0x00, 0x00, 0x00, 0x19, 0x01, 0x00, 0x00, 0x00, 0x40, 0xcf, 0xff, 0xff,
  0x14, 0x00, 0x00, 0x00, 0x12, 0x00, 0x00, 0x00, 0x18, 0x00, 0x00, 0x00,
  0x30, 0x00, 0x00, 0x00, 0x20, 0x00, 0x00, 0x00, 0x02, 0x00, 0x00, 0x00,
  0x01, 0x00, 0x00, 0x00, 0x04, 0x00, 0x00, 0x00, 0x08, 0x00, 0x00, 0x00,
  0x49, 0x64, 0x65, 0x6e, 0x74, 0x69, 0x74, 0x79, 0x00, 0x00, 0x00, 0x00,
  0x02, 0x00, 0x00, 0x00, 0xff, 0xff, 0xff, 0xff, 0x04, 0x00, 0x00, 0x00,
  0x24, 0xd0, 0xff, 0xff, 0x00, 0x00, 0x0e, 0x00, 0x18, 0x00, 0x08, 0x00,
  0x0c, 0x00, 0x10, 0x00, 0x07, 0x00, 0x14, 0x00, 0x0e, 0x00, 0x00, 0x00,
  0x00, 0x00, 0x00, 0x08, 0x03, 0x00, 0x00, 0x00, 0x18, 0x00, 0x00, 0x00,
  0x0c, 0x00, 0x00, 0x00, 0x04, 0x00, 0x00, 0x00, 0x40, 0xcf, 0xff, 0xff,
  0x01, 0x00, 0x00, 0x00, 0x10, 0x00, 0x00, 0x00, 0x03, 0x00, 0x00, 0x00,
  0x0f, 0x00, 0x00, 0x00, 0x07, 0x00, 0x00, 0x00, 0x04, 0x00, 0x00, 0x00,
  0xc8, 0xcf, 0xff, 0xff, 0x14, 0x00, 0x00, 0x00, 0x11, 0x00, 0x00, 0x00,
  0x18, 0x00, 0x00, 0x00, 0x5c, 0x00, 0x00, 0x00, 0x4c, 0x00, 0x00, 0x00,
  0x02, 0x00, 0x00, 0x00, 0x01, 0x00, 0x00, 0x00, 0x04, 0x00, 0x00, 0x00,
  0x34, 0x00, 0x00, 0x00, 0x73, 0x65, 0x71, 0x75, 0x65, 0x6e, 0x74, 0x69,
  0x61, 0x6c, 0x2f, 0x64, 0x65, 0x6e, 0x73, 0x65, 0x5f, 0x31, 0x2f, 0x4d,
  0x61, 0x74, 0x4d, 0x75, 0x6c, 0x3b, 0x73, 0x65, 0x71, 0x75, 0x65, 0x6e,
  0x74, 0x69, 0x61, 0x6c, 0x2f, 0x64, 0x65, 0x6e, 0x73, 0x65, 0x5f, 0x31,
  0x2f, 0x42, 0x69, 0x61, 0x73, 0x41, 0x64, 0x64, 0x00, 0x00, 0x00, 0x00,
  0x02, 0x00, 0x00, 0x00, 0xff, 0xff, 0xff, 0xff, 0x04, 0x00, 0x00, 0x00,
  0xc8, 0xcf, 0xff, 0xff, 0xda, 0xfc, 0xff, 0xff, 0x00, 0x00, 0x00, 0x08,
  0x03, 0x00, 0x00, 0x00, 0x24, 0x00, 0x00, 0x00, 0x18, 0x00, 0x00, 0x00,
  0x0c, 0x00, 0x00, 0x00, 0x00, 0x00, 0x06, 0x00, 0x08, 0x00, 0x07, 0x00,
  0x06, 0x00, 0x00, 0x00, 0x00, 0x00, 0x00, 0x01, 0x01, 0x00, 0x00, 0x00,
  0x0f, 0x00, 0x00, 0x00, 0x03, 0x00, 0x00, 0x00, 0x0e, 0x00, 0x00, 0x00,
  0x06, 0x00, 0x00, 0x00, 0x03, 0x00, 0x00, 0x00, 0xe8, 0xfb, 0xff, 0xff,
  0x09, 0x00, 0x00, 0x00, 0x00, 0x00, 0x00, 0x09, 0x01, 0x00, 0x00, 0x00,
  0x88, 0xd0, 0xff, 0xff, 0x14, 0x00, 0x00, 0x00, 0x10, 0x00, 0x00, 0x00,
  0x18, 0x00, 0x00, 0x00, 0x6c, 0x00, 0x00, 0x00, 0x5c, 0x00, 0x00, 0x00,
  0x02, 0x00, 0x00, 0x00, 0x01, 0x00, 0x00, 0x00, 0x10, 0x00, 0x00, 0x00,
  0x46, 0x00, 0x00, 0x00, 0x73, 0x65, 0x71, 0x75, 0x65, 0x6e, 0x74, 0x69,
  0x61, 0x6c, 0x2f, 0x64, 0x65, 0x6e, 0x73, 0x65, 0x2f, 0x4d, 0x61, 0x74,
  0x4d, 0x75, 0x6c, 0x3b, 0x73, 0x65, 0x71, 0x75, 0x65, 0x6e, 0x74, 0x69,
  0x61, 0x6c, 0x2f, 0x64, 0x65, 0x6e, 0x73, 0x65, 0x2f, 0x52, 0x65, 0x6c,
  0x75, 0x3b, 0x73, 0x65, 0x71, 0x75, 0x65, 0x6e, 0x74, 0x69, 0x61, 0x6c,
  0x2f, 0x64, 0x65, 0x6e, 0x73, 0x65, 0x2f, 0x42, 0x69, 0x61, 0x73, 0x41,
  0x64, 0x64, 0x00, 0x00, 0x02, 0x00, 0x00, 0x00, 0xff, 0xff, 0xff, 0xff,
  0x10, 0x00, 0x00, 0x00, 0xa8, 0xd1, 0xff, 0xff, 0x00, 0x00, 0x0a, 0x00,
  0x10, 0x00, 0x04, 0x00, 0x08, 0x00, 0x0c, 0x00, 0x0a, 0x00, 0x00, 0x00,
  0x02, 0x00, 0x00, 0x00, 0x10, 0x00, 0x00, 0x00, 0x04, 0x00, 0x00, 0x00,
  0x01, 0x00, 0x00, 0x00, 0x0e, 0x00, 0x00, 0x00, 0x02, 0x00, 0x00, 0x00,
  0x0d, 0x00, 0x00, 0x00, 0x05, 0x00, 0x00, 0x00, 0xa8, 0xfc, 0xff, 0xff,
  0x16, 0x00, 0x00, 0x00, 0x00, 0x00, 0x00, 0x16, 0x01, 0x00, 0x00, 0x00,
  0x48, 0xd1, 0xff, 0xff, 0x14, 0x00, 0x00, 0x00, 0x0f, 0x00, 0x00, 0x00,
  0x18, 0x00, 0x00, 0x00, 0x40, 0x00, 0x00, 0x00, 0x30, 0x00, 0x00, 0x00,
  0x02, 0x00, 0x00, 0x00, 0x01, 0x00, 0x00, 0x00, 0x70, 0x00, 0x00, 0x00,
  0x1a, 0x00, 0x00, 0x00, 0x73, 0x65, 0x71, 0x75, 0x65, 0x6e, 0x74, 0x69,
  0x61, 0x6c, 0x2f, 0x66, 0x6c, 0x61, 0x74, 0x74, 0x65, 0x6e, 0x2f, 0x52,
  0x65, 0x73, 0x68, 0x61, 0x70, 0x65, 0x00, 0x00, 0x02, 0x00, 0x00, 0x00,
  0xff, 0xff, 0xff, 0xff, 0x70, 0x00, 0x00, 0x00, 0x2c, 0xd1, 0xff, 0xff,
  0x3e, 0xfe, 0xff, 0xff, 0x00, 0x00, 0x00, 0x05, 0x01, 0x00, 0x00, 0x00,
  0x38, 0x00, 0x00, 0x00, 0x2c, 0x00, 0x00, 0x00, 0x14, 0x00, 0x00, 0x00,
  0x00, 0x00, 0x0e, 0x00, 0x14, 0x00, 0x00, 0x00, 0x10, 0x00, 0x0c, 0x00,
  0x08, 0x00, 0x04, 0x00, 0x0e, 0x00, 0x00, 0x00, 0x03, 0x00, 0x00, 0x00,
  0x01, 0x00, 0x00, 0x00, 0x03, 0x00, 0x00, 0x00, 0x01, 0x00, 0x00, 0x00,
  0x01, 0x00, 0x00, 0x00, 0x0d, 0x00, 0x00, 0x00, 0x01, 0x00, 0x00, 0x00,
  0x0c, 0x00, 0x00, 0x00, 0xe8, 0xd1, 0xff, 0xff, 0x14, 0x00, 0x00, 0x00,
  0x0e, 0x00, 0x00, 0x00, 0x20, 0x00, 0x00, 0x00, 0x58, 0x00, 0x00, 0x00,
  0x40, 0x00, 0x00, 0x00, 0x04, 0x00, 0x00, 0x00, 0x01, 0x00, 0x00, 0x00,
  0x07, 0x00, 0x00, 0x00, 0x01, 0x00, 0x00, 0x00, 0x10, 0x00, 0x00, 0x00,
  0x22, 0x00, 0x00, 0x00, 0x73, 0x65, 0x71, 0x75, 0x65, 0x6e, 0x74, 0x69,
  0x61, 0x6c, 0x2f, 0x6d, 0x61, 0x78, 0x5f, 0x70, 0x6f, 0x6f, 0x6c, 0x69,
  0x6e, 0x67, 0x32, 0x64, 0x5f, 0x31, 0x2f, 0x4d, 0x61, 0x78, 0x50, 0x6f,
  0x6f, 0x6c, 0x00, 0x00, 0x04, 0x00, 0x00, 0x00, 0xff, 0xff, 0xff, 0xff,
  0x07, 0x00, 0x00, 0x00, 0x01, 0x00, 0x00, 0x00, 0x10, 0x00, 0x00, 0x00,
  0xe4, 0xd1, 0xff, 0xff, 0x1a, 0xfe, 0xff, 0xff, 0x00, 0x00, 0x00, 0x01,
  0x24, 0x00, 0x00, 0x00, 0x18, 0x00, 0x00, 0x00, 0x04, 0x00, 0x00, 0x00,
  0x0c, 0xfe, 0xff, 0xff, 0x01, 0x00, 0x00, 0x00, 0x01, 0x00, 0x00, 0x00,
  0x00, 0x00, 0x00, 0x01, 0x01, 0x00, 0x00, 0x00, 0x0c, 0x00, 0x00, 0x00,
  0x03, 0x00, 0x00, 0x00, 0x0b, 0x00, 0x00, 0x00, 0x09, 0x00, 0x00, 0x00,
  0x02, 0x00, 0x00, 0x00, 0x90, 0xd2, 0xff, 0xff, 0x14, 0x00, 0x00, 0x00,
  0x0d, 0x00, 0x00, 0x00, 0x20, 0x00, 0x00, 0x00, 0xb8, 0x00, 0x00, 0x00,
  0xa0, 0x00, 0x00, 0x00, 0x04, 0x00, 0x00, 0x00, 0x01, 0x00, 0x00, 0x00,
  0x15, 0x00, 0x00, 0x00, 0x01, 0x00, 0x00, 0x00, 0x10, 0x00, 0x00, 0x00,
  0x83, 0x00, 0x00, 0x00, 0x73, 0x65, 0x71, 0x75, 0x65, 0x6e, 0x74, 0x69,
  0x61, 0x6c, 0x2f, 0x63, 0x6f, 0x6e, 0x76, 0x32, 0x64, 0x5f, 0x31, 0x2f,
  0x52, 0x65, 0x6c, 0x75, 0x3b, 0x73, 0x65, 0x71, 0x75, 0x65, 0x6e, 0x74,
  0x69, 0x61, 0x6c, 0x2f, 0x63, 0x6f, 0x6e, 0x76, 0x32, 0x64, 0x5f, 0x31,
  0x2f, 0x42, 0x69, 0x61, 0x73, 0x41, 0x64, 0x64, 0x3b, 0x73, 0x65, 0x71,
  0x75, 0x65, 0x6e, 0x74, 0x69, 0x61, 0x6c, 0x2f, 0x63, 0x6f, 0x6e, 0x76,
  0x32, 0x64, 0x5f, 0x31, 0x2f, 0x43, 0x6f, 0x6e, 0x76, 0x32, 0x44, 0x3b,
  0x73, 0x65, 0x71, 0x75, 0x65, 0x6e, 0x74, 0x69, 0x61, 0x6c, 0x2f, 0x63,
  0x6f, 0x6e, 0x76, 0x32, 0x64, 0x5f, 0x31, 0x2f, 0x42, 0x69, 0x61, 0x73,
  0x41, 0x64, 0x64, 0x2f, 0x52, 0x65, 0x61, 0x64, 0x56, 0x61, 0x72, 0x69,
  0x61, 0x62, 0x6c, 0x65, 0x4f, 0x70, 0x2f, 0x72, 0x65, 0x73, 0x6f, 0x75,
  0x72, 0x63, 0x65, 0x00, 0x04, 0x00, 0x00, 0x00, 0xff, 0xff, 0xff, 0xff,
  0x15, 0x00, 0x00, 0x00, 0x01, 0x00, 0x00, 0x00, 0x10, 0x00, 0x00, 0x00,
  0xfc, 0xd3, 0xff, 0xff, 0x00, 0x00, 0x0e, 0x00, 0x1a, 0x00, 0x08, 0x00,
  0x0c, 0x00, 0x10, 0x00, 0x07, 0x00, 0x14, 0x00, 0x0e, 0x00, 0x00, 0x00,
  0x00, 0x00, 0x00, 0x05, 0x01, 0x00, 0x00, 0x00, 0x3c, 0x00, 0x00, 0x00,
  0x30, 0x00, 0x00, 0x00, 0x14, 0x00, 0x00, 0x00, 0x00, 0x00, 0x0e, 0x00,
  0x18, 0x00, 0x17, 0x00, 0x10, 0x00, 0x0c, 0x00, 0x08, 0x00, 0x04, 0x00,
  0x0e, 0x00, 0x00, 0x00, 0x03, 0x00, 0x00, 0x00, 0x03, 0x00, 0x00, 0x00,
  0x03, 0x00, 0x00, 0x00, 0x03, 0x00, 0x00, 0x00, 0x00, 0x00, 0x00, 0x01,
  0x01, 0x00, 0x00, 0x00, 0x0b, 0x00, 0x00, 0x00, 0x01, 0x00, 0x00, 0x00,
  0x0a, 0x00, 0x00, 0x00, 0x2c, 0xff, 0xff, 0xff, 0x11, 0x00, 0x00, 0x00,
  0x00, 0x00, 0x00, 0x11, 0x01, 0x00, 0x00, 0x00, 0xcc, 0xd3, 0xff, 0xff,
  0x14, 0x00, 0x00, 0x00, 0x0c, 0x00, 0x00, 0x00, 0x20, 0x00, 0x00, 0x00,
  0x58, 0x00, 0x00, 0x00, 0x40, 0x00, 0x00, 0x00, 0x04, 0x00, 0x00, 0x00,
  0x01, 0x00, 0x00, 0x00, 0x15, 0x00, 0x00, 0x00, 0x01, 0x00, 0x00, 0x00,
  0x08, 0x00, 0x00, 0x00, 0x20, 0x00, 0x00, 0x00, 0x73, 0x65, 0x71, 0x75,
  0x65, 0x6e, 0x74, 0x69, 0x61, 0x6c, 0x2f, 0x6d, 0x61, 0x78, 0x5f, 0x70,
  0x6f, 0x6f, 0x6c, 0x69, 0x6e, 0x67, 0x32, 0x64, 0x2f, 0x4d, 0x61, 0x78,
  0x50, 0x6f, 0x6f, 0x6c, 0x00, 0x00, 0x00, 0x00, 0x04, 0x00, 0x00, 0x00,
  0xff, 0xff, 0xff, 0xff, 0x15, 0x00, 0x00, 0x00, 0x01, 0x00, 0x00, 0x00,
  0x08, 0x00, 0x00, 0x00, 0xd8, 0xd4, 0xff, 0xff, 0x00, 0x00, 0x0e, 0x00,
  0x14, 0x00, 0x00, 0x00, 0x08, 0x00, 0x0c, 0x00, 0x07, 0x00, 0x10, 0x00,
  0x0e, 0x00, 0x00, 0x00, 0x00, 0x00, 0x00, 0x01, 0x30, 0x00, 0x00, 0x00,
  0x24, 0x00, 0x00, 0x00, 0x10, 0x00, 0x00, 0x00, 0x0c, 0x00, 0x10, 0x00,
  0x00, 0x00, 0x04, 0x00, 0x08, 0x00, 0x0f, 0x00, 0x0c, 0x00, 0x00, 0x00,
  0x01, 0x00, 0x00, 0x00, 0x01, 0x00, 0x00, 0x00, 0x00, 0x00, 0x00, 0x01,
  0x01, 0x00, 0x00, 0x00, 0x0a, 0x00, 0x00, 0x00, 0x03, 0x00, 0x00, 0x00,
  0x00, 0x00, 0x00, 0x00, 0x08, 0x00, 0x00, 0x00, 0x01, 0x00, 0x00, 0x00,
  0x0c, 0x00, 0x10, 0x00, 0x0b, 0x00, 0x00, 0x00, 0x0c, 0x00, 0x04, 0x00,
  0x0c, 0x00, 0x00, 0x00, 0x03, 0x00, 0x00, 0x00, 0x00, 0x00, 0x00, 0x03,
  0x01, 0x00, 0x00, 0x00, 0xac, 0xd4, 0xff, 0xff, 0x14, 0x00, 0x00, 0x00,
  0x0b, 0x00, 0x00, 0x00, 0x20, 0x00, 0x00, 0x00, 0xb0, 0x00, 0x00, 0x00,
  0x98, 0x00, 0x00, 0x00, 0x04, 0x00, 0x00, 0x00, 0x01, 0x00, 0x00, 0x00,
  0x40, 0x00, 0x00, 0x00, 0x03, 0x00, 0x00, 0x00, 0x08, 0x00, 0x00, 0x00,
  0x7b, 0x00, 0x00, 0x00, 0x73, 0x65, 0x71, 0x75, 0x65, 0x6e, 0x74, 0x69,
  0x61, 0x6c, 0x2f, 0x63, 0x6f, 0x6e, 0x76, 0x32, 0x64, 0x2f, 0x52, 0x65,
  0x6c, 0x75, 0x3b, 0x73, 0x65, 0x71, 0x75, 0x65, 0x6e, 0x74, 0x69, 0x61,
  0x6c, 0x2f, 0x63, 0x6f, 0x6e, 0x76, 0x32, 0x64, 0x2f, 0x42, 0x69, 0x61,
  0x73, 0x41, 0x64, 0x64, 0x3b, 0x73, 0x65, 0x71, 0x75, 0x65, 0x6e, 0x74,
  0x69, 0x61, 0x6c, 0x2f, 0x63, 0x6f, 0x6e, 0x76, 0x32, 0x64, 0x2f, 0x43,
  0x6f, 0x6e, 0x76, 0x32, 0x44, 0x3b, 0x73, 0x65, 0x71, 0x75, 0x65, 0x6e,
  0x74, 0x69, 0x61, 0x6c, 0x2f, 0x63, 0x6f, 0x6e, 0x76, 0x32, 0x64, 0x2f,
  0x42, 0x69, 0x61, 0x73, 0x41, 0x64, 0x64, 0x2f, 0x52, 0x65, 0x61, 0x64,
  0x56, 0x61, 0x72, 0x69, 0x61, 0x62, 0x6c, 0x65, 0x4f, 0x70, 0x2f, 0x72,
  0x65, 0x73, 0x6f, 0x75, 0x72, 0x63, 0x65, 0x00, 0x04, 0x00, 0x00, 0x00,
  0xff, 0xff, 0xff, 0xff, 0x40, 0x00, 0x00, 0x00, 0x03, 0x00, 0x00, 0x00,
  0x08, 0x00, 0x00, 0x00, 0x00, 0xd5, 0xff, 0xff, 0x0a, 0xd6, 0xff, 0xff,
  0x04, 0x00, 0x00, 0x00, 0x00, 0x08, 0x00, 0x00, 0xdb, 0x0e, 0x94, 0xbd,
  0xcf, 0xd8, 0x9f, 0xbc, 0x70, 0x42, 0x7a, 0xbe, 0x72, 0x35, 0xe8, 0xbe,
  0x71, 0x84, 0x05, 0xbe, 0xc4, 0x26, 0xb4, 0xbb, 0xdc, 0x55, 0xb0, 0xbd,
  0x98, 0xfc, 0xd8, 0xbc, 0x32, 0x98, 0xa1, 0xbc, 0xe4, 0x99, 0xa3, 0x3d,
  0xf7, 0xbf, 0x9a, 0xbd, 0x2b, 0x6b, 0xd7, 0xbe, 0x8f, 0x0d, 0x23, 0xbd,
  0xef, 0xe4, 0x18, 0xbc, 0xb9, 0x5e, 0xd8, 0xbc, 0x89, 0xf5, 0x64, 0x3d,
  0x44, 0x16, 0xd0, 0xbd, 0x0f, 0x0c, 0x20, 0x3e, 0xb0, 0x17, 0x3f, 0x3f,
  0xa9, 0xb7, 0xf2, 0xbe, 0x94, 0x1b, 0x1b, 0x3d, 0x72, 0x62, 0x8d, 0xbd,
  0x20, 0x83, 0xd0, 0x3d, 0x10, 0xca, 0xf0, 0x3c, 0x37, 0xf6, 0x41, 0xbe,
  0xbd, 0x05, 0xbf, 0x3e, 0xf6, 0x42, 0x57, 0x3c, 0xbd, 0x57, 0x1d, 0xbf,
  0x80, 0x5b, 0x2e, 0xbd, 0x0d, 0x36, 0xb0, 0xbd, 0x4c, 0x66, 0x8b, 0x3c,
  0x3f, 0x5d, 0x9e, 0xbc, 0x09, 0x36, 0xe0, 0xbd, 0xad, 0x22, 0x20, 0x3c,
  0x9b, 0x92, 0xbf, 0xbd, 0x12, 0x3e, 0x5c, 0xbe, 0x49, 0x91, 0x64, 0xbd,
  0xbd, 0x2d, 0x34, 0xbd, 0x6e, 0xd4, 0x3d, 0x3d, 0x96, 0xbd, 0x08, 0xbe,
  0x89, 0x36, 0xdd, 0xbd, 0xa1, 0xeb, 0x71, 0xbd, 0x82, 0x17, 0x98, 0x3e,
  0x24, 0x70, 0xa6, 0x3e, 0x68, 0xd0, 0x32, 0x3e, 0x95, 0xdd, 0x9d, 0xbc,
  0xba, 0xfc, 0xd7, 0x3d, 0x4b, 0x17, 0xa4, 0xbd, 0x57, 0x9c, 0x0e, 0xbd,
  0xc6, 0xc3, 0x46, 0x3b, 0x08, 0xbd, 0x8a, 0xbd, 0xcf, 0xb8, 0x19, 0x3e,
  0xa6, 0xe1, 0x8b, 0x3e, 0xc0, 0x3c, 0x60, 0xbd, 0x6e, 0xcc, 0x2f, 0xbc,
  0xa1, 0xb3, 0x19, 0xbe, 0x44, 0x25, 0x92, 0xbd, 0x44, 0x87, 0xf1, 0x3b,
  0xdf, 0x25, 0x16, 0x3d, 0xe0, 0x1b, 0x41, 0x3d, 0x84, 0xfc, 0x3e, 0xbd,
  0x6b, 0x24, 0xfd, 0xbc, 0xaf, 0xd7, 0x87, 0x3d, 0x8e, 0x77, 0xa8, 0xbd,
  0x1e, 0x39, 0x71, 0xbd, 0x5c, 0x02, 0xe3, 0x3d, 0x0f, 0xdf, 0x38, 0xbe,
  0x4d, 0xad, 0xc4, 0xbc, 0x86, 0xf1, 0x98, 0xbe, 0x9e, 0x30, 0xa3, 0x3d,
  0x91, 0x22, 0x89, 0xbe, 0xcd, 0x12, 0x15, 0xbf, 0x8e, 0x13, 0xcf, 0x3e,
  0x13, 0x85, 0x20, 0x3d, 0x61, 0xf2, 0x89, 0x3c, 0x0f, 0x4b, 0xd7, 0xbc,
  0xd3, 0xe9, 0x94, 0xbe, 0x3c, 0x9f, 0xd6, 0x3a, 0xc2, 0x16, 0x35, 0xbf,
  0x81, 0xec, 0x61, 0xbf, 0x1c, 0xf8, 0xd1, 0xbd, 0xba, 0x21, 0x98, 0x3e,
  0x37, 0x70, 0x6e, 0x3e, 0xc1, 0xe5, 0xa7, 0xbd, 0x35, 0x62, 0x16, 0xbe,
  0xa1, 0x64, 0x1d, 0xbe, 0x92, 0x6d, 0x09, 0xbf, 0x50, 0x83, 0xbf, 0x3d,
  0x39, 0xc8, 0x34, 0xbe, 0x88, 0xdd, 0x80, 0xbe, 0xdd, 0x3c, 0x8b, 0x3e,
  0x10, 0xd2, 0xb9, 0xbd, 0x64, 0x9a, 0xd3, 0x3d, 0x98, 0x51, 0x83, 0xbe,
  0x37, 0x0c, 0x0c, 0xbe, 0x45, 0x0a, 0xcc, 0x3d, 0x53, 0xfa, 0xee, 0xbc,
  0x24, 0xe7, 0x81, 0x3e, 0x99, 0x9b, 0xfc, 0xbb, 0xda, 0x91, 0x12, 0xbf,
  0x6d, 0xe0, 0x17, 0x3d, 0x28, 0xaf, 0xbf, 0xbd, 0x3b, 0xe5, 0x89, 0x3c,
  0x92, 0x9a, 0x34, 0x3d, 0x85, 0x85, 0x13, 0xbe, 0x24, 0xe7, 0x6d, 0x3e,
  0xb8, 0xf8, 0x71, 0x3d, 0x41, 0xb4, 0x3a, 0xbf, 0x05, 0x00, 0xf5, 0xbc,
  0x67, 0xdd, 0xcf, 0xbd, 0xea, 0x15, 0xe5, 0xbc, 0xa8, 0x7d, 0x04, 0xbc,
  0x4a, 0xe2, 0x24, 0xbe, 0x98, 0x6d, 0x00, 0x3f, 0x34, 0xb5, 0xf4, 0x3c,
  0xf8, 0x0b, 0x3c, 0xbf, 0x39, 0x88, 0x95, 0xbd, 0x50, 0x59, 0xd4, 0xbd,
  0xd7, 0xfc, 0xb7, 0xbc, 0xc7, 0x9b, 0x60, 0x3e, 0xea, 0x47, 0x1b, 0xbe,
  0x97, 0xcb, 0x22, 0x3f, 0xd2, 0x15, 0x0b, 0xbd, 0xa3, 0xf5, 0x34, 0xbf,
  0xec, 0xbf, 0xb3, 0x3a, 0x42, 0x1d, 0x8f, 0xbd, 0x3e, 0xaa, 0x1c, 0x3c,
  0x91, 0x21, 0x23, 0xbd, 0x65, 0xd2, 0x3b, 0xbe, 0xfb, 0x63, 0x42, 0x3c,
  0xed, 0x73, 0x02, 0x3f, 0x9c, 0x2d, 0xb4, 0xbe, 0x8c, 0x0f, 0x03, 0xbe,
  0x64, 0x5e, 0x09, 0xbe, 0x6a, 0x2b, 0x40, 0x3d, 0x0a, 0xae, 0xca, 0x3c,
  0x15, 0xbd, 0xbc, 0xbd, 0x87, 0x2a, 0xb6, 0x3a, 0xf4, 0xf3, 0x95, 0x3e,
  0x14, 0x73, 0xfd, 0xbc, 0xee, 0xf5, 0x5d, 0x3e, 0xbe, 0x76, 0x04, 0xbe,
  0xd0, 0x8a, 0xcf, 0x3a, 0x3e, 0x77, 0x16, 0x3e, 0xca, 0xde, 0xa8, 0x3c,
  0x95, 0x6a, 0x09, 0x3e, 0x73, 0xa5, 0x89, 0xbe, 0x7a, 0xc0, 0x81, 0x3e,
  0x01, 0xea, 0x6d, 0xbd, 0xfc, 0x59, 0xe3, 0xbd, 0x88, 0x60, 0x23, 0xbc,
  0x1c, 0x98, 0xbe, 0xbc, 0xcb, 0x4a, 0x88, 0xbd, 0x40, 0xd3, 0x48, 0x3e,
  0x0b, 0x8e, 0x45, 0xbd, 0xf5, 0x83, 0xba, 0xbd, 0x9e, 0x01, 0xbe, 0xbd,
  0x41, 0x41, 0x9b, 0xbd, 0x0f, 0x44, 0xa0, 0xbd, 0xb3, 0x21, 0xce, 0xbd,
  0x78, 0xd3, 0x96, 0x3d, 0x4b, 0x1b, 0x20, 0x3d, 0x1e, 0x30, 0x27, 0xbe,
  0x21, 0x43, 0x83, 0xbd, 0x79, 0xc5, 0x87, 0xbe, 0x56, 0x69, 0x3d, 0x3e,
  0x8b, 0x4e, 0x97, 0xbe, 0x7a, 0xf0, 0xa9, 0xbd, 0xb8, 0xb6, 0xe4, 0x3b,
  0x33, 0x49, 0x38, 0x3d, 0x5c, 0x4f, 0x06, 0xbd, 0x59, 0xe9, 0x85, 0xbd,
  0x68, 0x43, 0x62, 0xbe, 0x66, 0xf2, 0x61, 0x3e, 0x7d, 0xe3, 0xa1, 0xbe,
  0x4d, 0x6b, 0x59, 0xbe, 0xbf, 0x82, 0x24, 0xbd, 0xc1, 0xdc, 0x26, 0x3f,
  0xad, 0x52, 0xd6, 0x3d, 0x76, 0xce, 0xe4, 0xbd, 0x58, 0x08, 0x10, 0xbe,
  0x12, 0x44, 0xef, 0xbd, 0x53, 0x5e, 0x0c, 0xbf, 0xb3, 0x4e, 0x67, 0xbe,
  0x0a, 0xee, 0x21, 0xbe, 0xae, 0x5c, 0x0f, 0x3e, 0x04, 0x02, 0x26, 0x3e,
  0x43, 0x94, 0x34, 0xbe, 0x1a, 0x13, 0xb5, 0x3e, 0xf3, 0xe6, 0x49, 0xbe,
  0xac, 0x35, 0xd6, 0xbe, 0x94, 0x4f, 0x6c, 0xbe, 0x44, 0x7a, 0x14, 0xbe,
  0xd2, 0xc2, 0x8e, 0xbe, 0xfb, 0xf6, 0xcf, 0xbc, 0x55, 0xda, 0x50, 0xbe,
  0xf8, 0x6a, 0x89, 0xbe, 0xdb, 0x59, 0xee, 0xbd, 0x3f, 0x32, 0x4e, 0xbd,
  0xd4, 0x9d, 0x85, 0x3c, 0xbe, 0x57, 0x04, 0xbe, 0x0d, 0xdd, 0x5c, 0xbe,
  0x56, 0xb9, 0x03, 0x3f, 0x3d, 0x0b, 0x59, 0xbe, 0x39, 0xf9, 0x3a, 0xbd,
  0xd2, 0x49, 0xb8, 0xbd, 0x27, 0xfb, 0xe7, 0xbd, 0x0e, 0x4c, 0x40, 0xbd,
  0x6c, 0x1d, 0xad, 0xbd, 0x34, 0x71, 0x1f, 0x3e, 0x19, 0x27, 0x84, 0xbe,
  0xab, 0x8f, 0xd3, 0xbd, 0xf8, 0x37, 0x6d, 0x3c, 0x94, 0x67, 0xc0, 0xbc,
  0xfa, 0x89, 0x89, 0xbd, 0x8b, 0xb4, 0x91, 0x3d, 0xba, 0x2e, 0xcb, 0x3e,
  0x24, 0x35, 0x12, 0x3e, 0x9d, 0xde, 0x11, 0xbe, 0xfe, 0x17, 0x5d, 0x3e,
  0xaa, 0xd5, 0xe1, 0xbd, 0xa2, 0xa1, 0xb6, 0x3b, 0x6f, 0x92, 0xec, 0xbd,
  0xc8, 0x8f, 0xbb, 0xbb, 0x51, 0x0e, 0x20, 0x3d, 0xd8, 0x18, 0x45, 0x3e,
  0x5a, 0xb0, 0x55, 0x3e, 0xeb, 0x76, 0x86, 0xbd, 0x46, 0x6b, 0x3b, 0xbe,
  0x5c, 0x29, 0x20, 0xbe, 0x5a, 0x08, 0xba, 0x3d, 0x45, 0xf0, 0x87, 0xbe,
  0xa3, 0xd9, 0x6d, 0xbd, 0x4a, 0x64, 0x0f, 0x3d, 0xb9, 0xe0, 0x80, 0x3e,
  0x7a, 0xcf, 0x50, 0x3e, 0x50, 0x91, 0x4b, 0xbe, 0x58, 0x0e, 0xf3, 0xbd,
  0x63, 0x0a, 0xba, 0x3c, 0x4a, 0x2a, 0x99, 0xbe, 0x76, 0x4c, 0x0e, 0xbe,
  0x1d, 0xac, 0xd1, 0x3e, 0x7f, 0xbd, 0x9f, 0x3e, 0xa8, 0xae, 0x61, 0xbd,
  0x67, 0xae, 0xde, 0xbb, 0x40, 0xa3, 0x42, 0xbe, 0xa6, 0xee, 0xf4, 0xbc,
  0xa2, 0x1d, 0x94, 0xbe, 0xb3, 0x10, 0x9c, 0xbc, 0xdd, 0x85, 0x19, 0x3e,
  0x74, 0x57, 0xb8, 0xbc, 0xed, 0xfe, 0x1d, 0x3e, 0xdb, 0x26, 0xd9, 0x3d,
  0x81, 0x7a, 0x15, 0xbe, 0x5f, 0xa8, 0x55, 0x3d, 0xa5, 0xa0, 0x72, 0xbe,
  0xfd, 0x49, 0xd0, 0xbc, 0x96, 0x84, 0x53, 0xbe, 0x30, 0xc7, 0x8f, 0xbe,
  0x5b, 0xe6, 0x8a, 0xbd, 0x88, 0xb5, 0xac, 0xbc, 0x1c, 0xca, 0xb1, 0xbe,
  0x53, 0x94, 0x8e, 0x3d, 0x1c, 0x5e, 0xc2, 0x3d, 0xc7, 0x1e, 0xa6, 0xbd,
  0x22, 0x3e, 0xc8, 0xbc, 0x84, 0x02, 0x9c, 0x3d, 0xf6, 0xc4, 0xff, 0xb8,
  0xf6, 0x34, 0xad, 0xbd, 0xb4, 0x7d, 0x08, 0xbf, 0xd4, 0x30, 0x09, 0x3e,
  0xcc, 0xf0, 0x08, 0x3e, 0x9c, 0x8e, 0x73, 0xbe, 0x8a, 0x8b, 0x9a, 0xbe,
  0x3c, 0xc5, 0x49, 0x3d, 0xc4, 0x6e, 0xad, 0xbe, 0xea, 0x8b, 0xa6, 0xbe,
  0xc9, 0x01, 0x2c, 0xbe, 0xab, 0x79, 0x86, 0x3d, 0x4e, 0x0f, 0xba, 0xbd,
  0xd1, 0x5c, 0xa7, 0xbe, 0x63, 0x7b, 0x2d, 0xbe, 0x64, 0x64, 0x8e, 0xbd,
  0xe8, 0xe7, 0xd8, 0xbc, 0xc9, 0xc5, 0xaf, 0xbe, 0xf6, 0xcd, 0x59, 0xbd,
  0x93, 0x93, 0x80, 0xbe, 0x9d, 0xa5, 0x5f, 0xbe, 0x10, 0x42, 0x2a, 0xbd,
  0xfa, 0xb0, 0xe8, 0xbd, 0x07, 0xba, 0x03, 0xbe, 0xfc, 0xc5, 0x94, 0xbd,
  0xe0, 0x11, 0x3b, 0xbe, 0x38, 0x14, 0x1a, 0xbd, 0xf8, 0x46, 0xc5, 0xbd,
  0xc1, 0x44, 0x5e, 0x3d, 0xba, 0x19, 0x45, 0x3c, 0x43, 0xfe, 0x52, 0xbd,
  0xe3, 0xbe, 0x9d, 0x3d, 0x4a, 0xd5, 0x9c, 0x3c, 0x81, 0x3b, 0x95, 0x3d,
  0x3a, 0x12, 0x48, 0xbd, 0x73, 0xb2, 0x1d, 0xbe, 0x93, 0xf0, 0x62, 0x3e,
  0x6c, 0x9a, 0x8c, 0xbc, 0x12, 0x3e, 0x35, 0x3f, 0xf1, 0x35, 0x93, 0xbd,
  0x9f, 0x7c, 0x32, 0xbd, 0x00, 0x4a, 0xe2, 0x3a, 0xe0, 0x3d, 0x40, 0xbd,
  0x91, 0x6c, 0xcd, 0xbe, 0x4f, 0x5a, 0x9d, 0xbe, 0xc0, 0xd4, 0x85, 0x3d,
  0x14, 0x31, 0xee, 0xbd, 0x5f, 0x5b, 0xfa, 0x3c, 0x94, 0x66, 0x27, 0xbc,
  0xea, 0x89, 0x50, 0x3c, 0x36, 0x82, 0x86, 0x3c, 0xf5, 0x13, 0xc2, 0xbe,
  0x15, 0xd4, 0xec, 0xbe, 0x3a, 0x78, 0x3f, 0x3d, 0x41, 0x42, 0x2c, 0xbe,
  0x09, 0x38, 0x9d, 0xbd, 0x0c, 0x11, 0x8f, 0xbe, 0x8a, 0xe0, 0xdd, 0xbc,
  0x3d, 0x1f, 0xac, 0xbd, 0x58, 0xde, 0x3b, 0xbe, 0xa4, 0x83, 0x0c, 0xbe,
  0x26, 0x7a, 0xcf, 0xbd, 0x7e, 0x1f, 0x1d, 0x3e, 0x86, 0xab, 0xab, 0x3c,
  0x78, 0x85, 0x44, 0xb9, 0xc1, 0x53, 0xea, 0x3d, 0xe4, 0x8e, 0xd9, 0xbe,
  0x60, 0xbb, 0x84, 0x3d, 0xe3, 0x1e, 0x84, 0xbd, 0x97, 0x82, 0x08, 0x3d,
  0x4c, 0x96, 0xd6, 0x3d, 0xbb, 0xed, 0x9a, 0x3d, 0x24, 0xeb, 0x0d, 0x3d,
  0xfb, 0xbd, 0x50, 0xbe, 0x38, 0xe4, 0x8f, 0xbe, 0x99, 0x6a, 0x14, 0x3d,
  0x54, 0xa0, 0xf1, 0xbc, 0x21, 0xa6, 0x08, 0xbd, 0x54, 0xc3, 0x4a, 0xbd,
  0xc6, 0xe0, 0xeb, 0xbc, 0x2a, 0x7e, 0x61, 0x3d, 0x2b, 0x54, 0x9b, 0x3d,
  0x1a, 0x13, 0xcd, 0xbd, 0x2e, 0x3e, 0x0f, 0x3e, 0x2e, 0x6b, 0x81, 0xbd,
  0xd2, 0x4a, 0x24, 0x3d, 0xf1, 0x06, 0x67, 0xbc, 0x7e, 0xf7, 0xda, 0xbe,
  0xa2, 0x61, 0xd6, 0x3d, 0x0b, 0x19, 0xfe, 0x3e, 0x3e, 0x3d, 0x29, 0xbd,
  0x5a, 0xd0, 0x1d, 0xbe, 0xb2, 0x26, 0xa0, 0xbd, 0xa6, 0x24, 0x5d, 0x3c,
  0x25, 0x6a, 0xc4, 0x3c, 0x05, 0xce, 0x85, 0x3e, 0xe7, 0x70, 0xd0, 0xbc,
  0x5e, 0xfa, 0x1f, 0xbf, 0x47, 0xd3, 0x2e, 0xbc, 0xdf, 0x05, 0x64, 0xbe,
  0x2d, 0x24, 0x23, 0xbd, 0x6f, 0x18, 0xf8, 0xbb, 0xfe, 0xb7, 0x3f, 0xbe,
  0x02, 0xd0, 0xcd, 0x3e, 0xd5, 0x33, 0x5c, 0xbd, 0xef, 0xbc, 0x26, 0xbf,
  0x5f, 0x6b, 0x37, 0x3c, 0x85, 0x28, 0x12, 0xbe, 0x8b, 0xc5, 0xb0, 0xbc,
  0xf8, 0xdb, 0xc1, 0xbc, 0xf4, 0x8e, 0xcf, 0x3e, 0xc1, 0xaa, 0x14, 0x3e,
  0xe4, 0x81, 0x6a, 0xbd, 0x58, 0x30, 0x60, 0xbe, 0xfc, 0xd8, 0x0c, 0xbd,
  0x79, 0x7b, 0x15, 0xbe, 0x10, 0x0f, 0x89, 0x3d, 0x10, 0x0c, 0x91, 0x3d,
  0x8e, 0x19, 0x2f, 0xbf, 0x42, 0xa9, 0x75, 0xbe, 0xf8, 0xc3, 0xe4, 0xbc,
  0xdc, 0xe5, 0x84, 0xbe, 0xe3, 0xb0, 0xce, 0xbc, 0xd5, 0x3b, 0x84, 0xbc,
  0xbe, 0x84, 0x81, 0x3c, 0x62, 0x4b, 0x0c, 0xbd, 0x32, 0x48, 0x63, 0x3e,
  0x38, 0xfa, 0x91, 0xbd, 0x94, 0x84, 0x69, 0xbd, 0x22, 0xf6, 0x72, 0xbe,
  0x4e, 0xfa, 0x25, 0xbd, 0xf4, 0x50, 0x01, 0x3e, 0x4c, 0xe7, 0x96, 0x3d,
  0x9a, 0x4b, 0xca, 0xbd, 0xc8, 0x5f, 0xb9, 0xbd, 0xff, 0xd3, 0x95, 0xbe,
  0xba, 0xdf, 0x75, 0xbc, 0x59, 0xb9, 0x52, 0xbe, 0xd2, 0x71, 0x3c, 0xbe,
  0x0c, 0xff, 0x98, 0xbe, 0x41, 0x84, 0xc3, 0xbd, 0xf7, 0x12, 0x60, 0xbd,
  0xd6, 0x96, 0x3f, 0x3d, 0xcd, 0x7e, 0xb2, 0xbd, 0xa2, 0x69, 0x88, 0x3d,
  0xc1, 0x89, 0xbc, 0xbd, 0x4a, 0x87, 0xaa, 0xbd, 0xf3, 0xb2, 0xc4, 0xbe,
  0x9d, 0x1b, 0xe7, 0xbd, 0x18, 0xb6, 0xb3, 0x3d, 0xc6, 0xa0, 0xf2, 0xbe,
  0xaf, 0x57, 0x68, 0xbe, 0x09, 0x52, 0x2b, 0x3e, 0x67, 0x51, 0x06, 0xbe,
  0xea, 0x2b, 0x9b, 0xbb, 0x02, 0x1b, 0x29, 0xbd, 0x0e, 0xff, 0x49, 0xbd,
  0x33, 0xa4, 0x56, 0x3d, 0x70, 0xb9, 0x39, 0xbe, 0x7d, 0x6d, 0x2a, 0x3d,
  0x62, 0x68, 0x4a, 0xbd, 0x72, 0x8e, 0x41, 0xbe, 0x4d, 0xd5, 0x8b, 0x3d,
  0xe4, 0x5d, 0x58, 0xbd, 0x87, 0xa7, 0xd0, 0x3e, 0xaf, 0xb4, 0x2b, 0xbd,
  0xf2, 0x49, 0xcf, 0x3d, 0xf0, 0x9f, 0x4e, 0xbe, 0xc0, 0x7f, 0x44, 0xbe,
  0x32, 0xb8, 0xb2, 0xbc, 0x3a, 0x77, 0xae, 0xbd, 0x73, 0x88, 0xbb, 0xbd,
  0x07, 0xf1, 0x19, 0xbf, 0xd0, 0x0a, 0x88, 0xbe, 0x27, 0x6c, 0xad, 0x3e,
  0x61, 0x9b, 0x5a, 0xbe, 0x3d, 0xb1, 0x8f, 0xbe, 0x3a, 0xfc, 0x12, 0xbe,
  0x30, 0x3d, 0x99, 0xbe, 0x62, 0x4f, 0xfa, 0xbd, 0x9a, 0x3f, 0x49, 0xbe,
  0x50, 0xd5, 0x83, 0xbe, 0x3d, 0x19, 0x09, 0x3d, 0x64, 0xd8, 0x51, 0x3d,
  0xd0, 0xc5, 0xd6, 0x3d, 0xf1, 0x21, 0xcf, 0x3c, 0xbb, 0x25, 0xe9, 0xbd,
  0x0d, 0xf8, 0x2b, 0xbe, 0x38, 0x40, 0xb1, 0xbd, 0x0c, 0xaf, 0xdc, 0xbe,
  0x06, 0xc0, 0xdf, 0x3c, 0x5b, 0x2a, 0xab, 0xbc, 0xb5, 0xb8, 0x40, 0xbe,
  0x13, 0xdb, 0x6b, 0x3d, 0xff, 0x7c, 0x96, 0xbd, 0xff, 0x13, 0x26, 0xbe,
  0x73, 0x82, 0x01, 0xbe, 0x1d, 0x18, 0x8a, 0xbe, 0x77, 0xb0, 0x89, 0x3e,
  0x0f, 0x79, 0x06, 0x3e, 0x42, 0x9a, 0x2d, 0xbe, 0x8f, 0x31, 0xb6, 0xbc,
  0xa8, 0x96, 0x19, 0xbc, 0xe3, 0xaf, 0xf3, 0xbd, 0xfa, 0x4d, 0xa4, 0xbd,
  0x92, 0x4c, 0xf8, 0xbd, 0x91, 0x12, 0x44, 0x3e, 0x45, 0xba, 0x1d, 0x3e,
  0x50, 0xc8, 0x19, 0xbd, 0xeb, 0xcf, 0xe1, 0xbc, 0xc3, 0xde, 0x90, 0x3d,
  0x9b, 0xdc, 0x0a, 0x3d, 0xa9, 0x1b, 0xef, 0x3e, 0xd6, 0x62, 0x27, 0xbe,
  0x27, 0xe5, 0x0c, 0xbd, 0x60, 0xfe, 0xb3, 0x3e, 0x1e, 0xb6, 0xbe, 0xbc,
  0xc2, 0xe3, 0x01, 0x3f, 0xfa, 0x6c, 0x95, 0xbe, 0x7a, 0x78, 0x72, 0x3d,
  0x09, 0xdf, 0xcb, 0x3d, 0x5a, 0x9d, 0x76, 0xbd, 0x7a, 0x2d, 0x15, 0x3d,
  0x87, 0x90, 0x03, 0xbf, 0xf2, 0x37, 0x64, 0xbc, 0x31, 0x38, 0x02, 0x3e,
  0xde, 0x60, 0x75, 0xbe, 0xfb, 0xdf, 0x5e, 0xbe, 0x47, 0xbb, 0x90, 0xbe,
  0x95, 0xe5, 0x29, 0x3d, 0xbf, 0xe0, 0x81, 0x3c, 0x87, 0xdc, 0x41, 0xbd,
  0x4c, 0xf8, 0x54, 0x3e, 0x61, 0x8c, 0xc4, 0xbd, 0x93, 0x5b, 0xbe, 0xbd,
  0xb6, 0x80, 0xd2, 0xbd, 0x6c, 0x82, 0x8b, 0xbe, 0x96, 0xd8, 0x38, 0xbc,
  0x1c, 0xdb, 0x06, 0xbd, 0xfb, 0xd2, 0xe7, 0x3d, 0x5f, 0x9b, 0x5c, 0xbc,
  0x87, 0x71, 0x69, 0xbf, 0xc7, 0x69, 0xb5, 0x3a, 0x61, 0x71, 0x8e, 0xbe,
  0x46, 0x7c, 0xda, 0xbe, 0xe2, 0xdd, 0xff, 0xff, 0x10, 0x00, 0x00, 0x00,
  0x0a, 0x00, 0x00, 0x00, 0x1c, 0x00, 0x00, 0x00, 0x38, 0x00, 0x00, 0x00,
  0x04, 0x00, 0x00, 0x00, 0x10, 0x00, 0x00, 0x00, 0x04, 0x00, 0x00, 0x00,
  0x01, 0x00, 0x00, 0x00, 0x08, 0x00, 0x00, 0x00, 0x1a, 0x00, 0x00, 0x00,
  0x73, 0x65, 0x71, 0x75, 0x65, 0x6e, 0x74, 0x69, 0x61, 0x6c, 0x2f, 0x63,
  0x6f, 0x6e, 0x76, 0x32, 0x64, 0x5f, 0x31, 0x2f, 0x43, 0x6f, 0x6e, 0x76,
  0x32, 0x44, 0x00, 0x00, 0x58, 0xdd, 0xff, 0xff, 0x62, 0xde, 0xff, 0xff,
  0x04, 0x00, 0x00, 0x00, 0x80, 0x01, 0x00, 0x00, 0xea, 0xd0, 0x8b, 0x3e,
  0xf7, 0xeb, 0x0e, 0x3e, 0x63, 0xfa, 0x61, 0x3d, 0x19, 0x9d, 0x44, 0xbc,
  0x2f, 0x10, 0x49, 0x3e, 0x10, 0x34, 0x76, 0xbd, 0x9e, 0x28, 0x30, 0x3e,
  0xe8, 0x22, 0x30, 0xbe, 0xbf, 0xbe, 0x82, 0xbe, 0xa6, 0x0c, 0x25, 0x3d,
  0x7f, 0xf2, 0x5c, 0xbe, 0xbb, 0xcc, 0x48, 0xbe, 0xca, 0x90, 0x36, 0xbd,
  0x6f, 0x75, 0x0e, 0x3f, 0x16, 0xbe, 0x26, 0xbe, 0x62, 0xca, 0x02, 0xbd,
  0x9b, 0x0d, 0xbd, 0x3c, 0xaf, 0x29, 0x23, 0xbe, 0xf0, 0xa1, 0x55, 0x3d,
  0x01, 0x78, 0xb9, 0xbe, 0x07, 0x5c, 0xf4, 0x3d, 0xf1, 0x4c, 0x3d, 0x3c,
  0xb4, 0xb0, 0x73, 0xbe, 0x16, 0xcd, 0x36, 0x3e, 0x36, 0x2d, 0xbb, 0xbd,
  0xc1, 0x88, 0xe0, 0xbd, 0xfb, 0x0a, 0xc4, 0xbd, 0xd0, 0x93, 0xb3, 0xbd,
  0x96, 0x55, 0xc7, 0xbe, 0x08, 0x44, 0xa0, 0xbe, 0x60, 0x65, 0x35, 0x3c,
  0xa7, 0x34, 0xa2, 0x3e, 0x5c, 0x50, 0x57, 0x3e, 0x76, 0xa8, 0x3d, 0x3e,
  0xec, 0x93, 0x4a, 0x3e, 0x49, 0xe8, 0x4f, 0x3e, 0x0f, 0x7d, 0xb3, 0x3c,
  0x72, 0x7c, 0x7d, 0x3c, 0xcb, 0xc8, 0xe2, 0xbd, 0x19, 0x62, 0xe0, 0xba,
  0xbc, 0x88, 0xf0, 0x3b, 0xe5, 0x86, 0x01, 0x3f, 0x8c, 0x66, 0x41, 0xbe,
  0x2c, 0x12, 0x49, 0xbd, 0x46, 0x3f, 0x90, 0xbe, 0x33, 0x37, 0x55, 0xbc,
  0x43, 0xc5, 0xc8, 0xbd, 0x14, 0xcb, 0x9b, 0xbe, 0x7a, 0xc0, 0x9f, 0x3d,
  0x3a, 0xe0, 0x02, 0x3d, 0xe5, 0x0f, 0x5c, 0xbd, 0x62, 0x87, 0x94, 0x3e,
  0xed, 0x56, 0x83, 0x3e, 0x52, 0xf9, 0x13, 0x3d, 0xa3, 0xf2, 0x1c, 0xbe,
  0xdc, 0xb3, 0xe7, 0x3c, 0x15, 0x7d, 0x0b, 0x3e, 0x3e, 0xcb, 0x8d, 0xbd,
  0x6f, 0x09, 0x03, 0xbe, 0x08, 0x8d, 0x77, 0xbd, 0xbf, 0x9a, 0x4a, 0x3e,
  0x54, 0x95, 0x4d, 0x3d, 0x67, 0xfc, 0x0e, 0xbe, 0x56, 0xd8, 0xda, 0x3d,
  0xfa, 0x56, 0x0b, 0xbd, 0x0e, 0x9e, 0x66, 0xbd, 0x02, 0xd2, 0x59, 0xbb,
  0xe7, 0xa3, 0x91, 0x3c, 0xab, 0xbb, 0xf3, 0xbc, 0xab, 0x0b, 0xdf, 0x3d,
  0xa6, 0x58, 0x88, 0x3d, 0xbc, 0xe2, 0x5f, 0xbe, 0xc3, 0xa4, 0xe6, 0x3e,
  0xf2, 0x91, 0xd2, 0xbd, 0x34, 0x35, 0xd9, 0x3d, 0x79, 0x59, 0x93, 0xbe,
  0xd6, 0x6f, 0xdc, 0x3c, 0xfe, 0x44, 0x09, 0xbe, 0x46, 0xb9, 0x57, 0x3e,
  0x43, 0xa5, 0xcb, 0x3c, 0x80, 0x2d, 0x2b, 0xbd, 0xde, 0x72, 0x3b, 0x3d,
  0x1f, 0xb4, 0x2b, 0x3e, 0x39, 0xe3, 0xa7, 0xbc, 0xfc, 0xb9, 0x75, 0x3d,
  0x70, 0xb7, 0xcf, 0xbd, 0xf5, 0x0b, 0x9a, 0x3d, 0x8e, 0x18, 0x26, 0x3e,
  0x36, 0xb8, 0x38, 0xbd, 0x89, 0x24, 0x89, 0x3d, 0x0d, 0x26, 0xd7, 0x3d,
  0xa2, 0x94, 0xb1, 0x3c, 0xc2, 0x86, 0x6c, 0xbc, 0x9d, 0xc9, 0x19, 0x3e,
  0x87, 0x7e, 0x62, 0x3d, 0x7c, 0xd3, 0xc8, 0xbd, 0xba, 0xdf, 0xff, 0xff,
  0x10, 0x00, 0x00, 0x00, 0x09, 0x00, 0x00, 0x00, 0x1c, 0x00, 0x00, 0x00,
  0x38, 0x00, 0x00, 0x00, 0x04, 0x00, 0x00, 0x00, 0x08, 0x00, 0x00, 0x00,
  0x04, 0x00, 0x00, 0x00, 0x03, 0x00, 0x00, 0x00, 0x01, 0x00, 0x00, 0x00,
  0x18, 0x00, 0x00, 0x00, 0x73, 0x65, 0x71, 0x75, 0x65, 0x6e, 0x74, 0x69,
  0x61, 0x6c, 0x2f, 0x63, 0x6f, 0x6e, 0x76, 0x32, 0x64, 0x2f, 0x43, 0x6f,
  0x6e, 0x76, 0x32, 0x44, 0x00, 0x00, 0x00, 0x00, 0x30, 0xdf, 0xff, 0xff,
  0x3a, 0xe0, 0xff, 0xff, 0x04, 0x00, 0x00, 0x00, 0x00, 0x01, 0x00, 0x00,
  0x19, 0x92, 0xc7, 0xbe, 0x91, 0xcd, 0xe8, 0x3d, 0xdc, 0xcf, 0x6a, 0x3e,
  0x74, 0xf0, 0x62, 0xbe, 0x35, 0xe0, 0xb6, 0x3e, 0xb7, 0x7b, 0xc4, 0x3d,
  0x9b, 0xe7, 0x63, 0x3e, 0x9c, 0x2b, 0xaf, 0x3d, 0xa2, 0x25, 0x45, 0xbf,
  0xb6, 0x40, 0x93, 0xbd, 0x7f, 0x3d, 0x7f, 0x3e, 0xdd, 0xea, 0xe5, 0x3d,
  0x8f, 0xe0, 0xfa, 0xbd, 0x5a, 0xaf, 0x95, 0xbd, 0x49, 0x1c, 0x72, 0xbd,
  0x86, 0x2b, 0x16, 0x3d, 0x56, 0xf9, 0xa9, 0xbe, 0xe6, 0xa6, 0xcd, 0x3d,
  0x36, 0x3c, 0x69, 0x3e, 0x12, 0x94, 0x4c, 0xbe, 0x9a, 0x18, 0xbd, 0x3e,
  0x32, 0x7f, 0x9e, 0xbd, 0xb8, 0xa6, 0x45, 0x3e, 0x18, 0x34, 0xd2, 0xbc,
  0xae, 0x36, 0xd5, 0xbe, 0x54, 0x18, 0x05, 0xbd, 0xcd, 0xb9, 0x98, 0x3e,
  0xc3, 0x81, 0x06, 0x3e, 0xf6, 0x11, 0x05, 0xbd, 0x70, 0x9f, 0xd4, 0x3d,
  0xff, 0x03, 0xb9, 0x3c, 0x9d, 0x62, 0x5b, 0x3e, 0x3b, 0x8c, 0xb7, 0xbe,
  0x1d, 0x03, 0xbb, 0x3d, 0x31, 0xa9, 0x4b, 0x3e, 0x30, 0x1d, 0x15, 0xbe,
  0x0a, 0xd6, 0xa1, 0x3e, 0x48, 0xf4, 0xe4, 0x3d, 0xf4, 0xe1, 0x09, 0xbe,
  0x0c, 0x89, 0x13, 0xbf, 0xed, 0x8b, 0xc7, 0xbe, 0x0e, 0xb6, 0x00, 0xbe,
  0x45, 0x5f, 0x6f, 0x3e, 0x21, 0xa1, 0x6d, 0x3d, 0xff, 0x80, 0xf9, 0xbd,
  0xa6, 0x42, 0x18, 0x3e, 0x1e, 0x74, 0xaa, 0x3d, 0xc6, 0xa3, 0xa2, 0x3d,
  0x13, 0x81, 0xdf, 0xbe, 0x66, 0x0a, 0x8d, 0x3d, 0x0d, 0xb8, 0xbb, 0x3d,
  0x78, 0x31, 0x5f, 0xbe, 0x36, 0xd1, 0x5b, 0x3e, 0xc8, 0xd7, 0x4b, 0xbc,
  0xfc, 0xf8, 0x3a, 0x3e, 0xe9, 0x19, 0x3e, 0x3e, 0x59, 0xf4, 0xd3, 0xbe,
  0x44, 0x75, 0xf6, 0xbd, 0xad, 0x4a, 0x4f, 0x3e, 0x55, 0x69, 0x1c, 0x3e,
  0x3a, 0x14, 0x12, 0xbd, 0xfb, 0x69, 0xac, 0x3d, 0x9c, 0x80, 0xef, 0x3c,
  0xce, 0xca, 0x52, 0x3e, 0x12, 0xe1, 0xff, 0xff, 0x10, 0x00, 0x00, 0x00,
  0x08, 0x00, 0x00, 0x00, 0x14, 0x00, 0x00, 0x00, 0x30, 0x00, 0x00, 0x00,
  0x02, 0x00, 0x00, 0x00, 0x04, 0x00, 0x00, 0x00, 0x10, 0x00, 0x00, 0x00,
  0x19, 0x00, 0x00, 0x00, 0x73, 0x65, 0x71, 0x75, 0x65, 0x6e, 0x74, 0x69,
  0x61, 0x6c, 0x2f, 0x64, 0x65, 0x6e, 0x73, 0x65, 0x5f, 0x31, 0x2f, 0x4d,
  0x61, 0x74, 0x4d, 0x75, 0x6c, 0x00, 0x00, 0x00, 0x80, 0xe0, 0xff, 0xff,
  0x8a, 0xe1, 0xff, 0xff, 0x04, 0x00, 0x00, 0x00, 0x00, 0x1c, 0x00, 0x00,
  0xcd, 0xb1, 0xa9, 0xbe, 0xa8, 0xc5, 0xda, 0xb7, 0x3e, 0x6a, 0x03, 0xbe,
  0x7f, 0x27, 0xf6, 0xbc, 0xe2, 0x8a, 0x05, 0x3e, 0xeb, 0xa6, 0x95, 0xbe,
  0x24, 0xf9, 0x8d, 0x3d, 0x41, 0x33, 0xcd, 0xbd, 0xfa, 0x93, 0x11, 0xbd,
  0x9f, 0x49, 0x96, 0x3d, 0x31, 0x5d, 0x93, 0xbe, 0x6c, 0xf8, 0xc1, 0x3d,
  0xe5, 0xd7, 0x13, 0xbf, 0xb8, 0x8c, 0xc6, 0xbc, 0xa8, 0xd7, 0x3b, 0xbe,
  0x4e, 0xb0, 0x59, 0x3e, 0x31, 0xb1, 0xf9, 0xbb, 0xaf, 0x38, 0x85, 0xbe,
  0xc1, 0x57, 0x0c, 0xbe, 0xcf, 0x98, 0x14, 0xbe, 0x28, 0xf9, 0xae, 0xbd,
  0xbd, 0xc3, 0x2b, 0xbe, 0xcc, 0x1c, 0x3d, 0xbe, 0x44, 0xc0, 0x7a, 0xbd,
  0x74, 0x98, 0xe3, 0x3d, 0x15, 0x58, 0x02, 0xbe, 0x3e, 0x9c, 0x2c, 0xbe,
  0x13, 0x2c, 0xb6, 0x3d, 0x35, 0x2e, 0xc9, 0xbd, 0x53, 0xd6, 0x47, 0x3c,
  0xfd, 0x0f, 0x12, 0x3e, 0x66, 0xcf, 0xff, 0x3c, 0xbc, 0x25, 0xc2, 0xbb,
  0x0e, 0x4a, 0x41, 0xbe, 0xe0, 0x21, 0x28, 0x3e, 0xcf, 0xe8, 0x0b, 0xbd,
  0x0c, 0x31, 0x17, 0xbe, 0xda, 0xd5, 0x2c, 0x3e, 0x5c, 0xdc, 0xfb, 0xbe,
  0x48, 0x62, 0x15, 0xbf, 0x82, 0xf8, 0x1d, 0x3e, 0x15, 0x58, 0xf5, 0xbd,
  0xa1, 0xf8, 0x16, 0x3e, 0x80, 0x50, 0x35, 0xbf, 0xe1, 0xca, 0x89, 0xbd,
  0x44, 0x0d, 0x04, 0x3e, 0xe2, 0x33, 0xcc, 0x3d, 0xb5, 0xb9, 0x87, 0xbd,
  0x4a, 0x4f, 0x1c, 0x3e, 0x73, 0x4c, 0x8f, 0xbe, 0x5d, 0x21, 0x4a, 0xbe,
  0x93, 0x79, 0x95, 0xbc, 0x97, 0xca, 0x31, 0xbe, 0x72, 0xae, 0x88, 0xbe,
  0x06, 0xd2, 0x0b, 0xbf, 0xc6, 0xf5, 0xb7, 0xbe, 0x0a, 0x75, 0x0d, 0xbe,
  0xe2, 0xff, 0x02, 0xbf, 0x12, 0xa9, 0xc4, 0xbb, 0x36, 0x54, 0xbd, 0xbe,
  0xa4, 0x53, 0x2d, 0xbe, 0x03, 0x89, 0x54, 0x3e, 0xfa, 0x40, 0x8b, 0x3e,
  0xe1, 0x0b, 0x81, 0xbe, 0xa4, 0x91, 0x0b, 0x3e, 0x88, 0x07, 0x4c, 0xbe,
  0x9c, 0x62, 0xc6, 0xbd, 0x66, 0x85, 0xcb, 0x3d, 0x75, 0xe6, 0x32, 0x3e,
  0xda, 0xed, 0x1c, 0xbf, 0x3f, 0x45, 0xdf, 0x3d, 0x87, 0x78, 0x65, 0xbe,
  0x9a, 0x40, 0xd6, 0x3b, 0x0f, 0x8a, 0x8c, 0x3c, 0xf3, 0xdd, 0x28, 0xbe,
  0x54, 0xb7, 0x7a, 0xbd, 0x42, 0x3a, 0x89, 0xbe, 0x80, 0xe0, 0xa5, 0x3c,
  0xec, 0x8f, 0xcc, 0x3d, 0x8f, 0x5a, 0xa8, 0xbd, 0x89, 0x88, 0xe8, 0xbc,
  0x7c, 0x64, 0xa8, 0x3d, 0xbc, 0x99, 0x01, 0xbe, 0x25, 0x66, 0xed, 0x3d,
  0x41, 0xb7, 0x23, 0x3e, 0x1e, 0x61, 0x8b, 0xbe, 0x6d, 0xd3, 0x07, 0x3e,
  0xb4, 0xf1, 0xe7, 0xbd, 0x30, 0x0c, 0xca, 0xbd, 0x8f, 0x5f, 0x5d, 0xbc,
  0x46, 0xcc, 0x88, 0x3e, 0x29, 0x5f, 0x4a, 0xbd, 0x8c, 0xfb, 0x09, 0xbe,
  0x0c, 0x7e, 0x0d, 0xbe, 0x56, 0x16, 0x5c, 0x3d, 0x62, 0x23, 0x60, 0x3e,
  0xbe, 0x54, 0x4f, 0x3e, 0x27, 0xa8, 0x09, 0x3e, 0x48, 0x24, 0x11, 0xbe,
  0xa8, 0x56, 0x82, 0x3c, 0xfd, 0xa9, 0xbf, 0x3d, 0x76, 0x08, 0xbe, 0xbd,
  0x51, 0x2d, 0xe8, 0x3d, 0xb4, 0x49, 0x28, 0xbd, 0x3b, 0xb3, 0xbc, 0xbe,
  0x97, 0x3b, 0x1c, 0x3b, 0x0c, 0x9f, 0x56, 0xbd, 0xbe, 0xa0, 0x81, 0x3d,
  0xe9, 0x4f, 0xcf, 0xbd, 0xb2, 0x0d, 0xc9, 0xbd, 0x6b, 0x97, 0x24, 0x3e,
  0xee, 0xd8, 0x10, 0x3d, 0x4a, 0x0d, 0x5a, 0x3d, 0x0f, 0x4a, 0x00, 0xbe,
  0x4b, 0x63, 0x4e, 0x3e, 0x0e, 0x85, 0x1e, 0x3d, 0x28, 0x2d, 0x0f, 0xbe,
  0x47, 0x95, 0xb1, 0x3e, 0xdf, 0x6f, 0x22, 0xbd, 0x99, 0x89, 0x50, 0x3d,
  0x37, 0xd6, 0xcd, 0x3d, 0x97, 0x01, 0xd1, 0x3d, 0x2f, 0x6a, 0xd2, 0xbd,
  0x5e, 0x08, 0x00, 0x3d, 0xff, 0xc0, 0xd2, 0xbe, 0xd2, 0x8b, 0x64, 0x3d,
  0xa7, 0xc8, 0x32, 0xbe, 0x73, 0xc8, 0xa3, 0xbe, 0xb2, 0x93, 0x5f, 0xbd,
  0x33, 0x32, 0x9c, 0xbe, 0x43, 0x66, 0xb1, 0x3e, 0xb9, 0xad, 0x2e, 0xbe,
  0x57, 0x59, 0x72, 0xbd, 0x50, 0xc8, 0xc9, 0x3d, 0x40, 0xe0, 0x89, 0x3e,
  0xb0, 0x0c, 0x43, 0xbe, 0x36, 0x23, 0x61, 0xbe, 0x81, 0xda, 0x58, 0x3e,
  0x05, 0x7b, 0x42, 0xbe, 0x25, 0xa5, 0x61, 0xbd, 0xda, 0x42, 0xf0, 0x3f,
  0xd6, 0x52, 0x9e, 0x3e, 0x66, 0xe6, 0xbc, 0x3e, 0x65, 0x31, 0x24, 0xbe,
  0x57, 0x65, 0xd1, 0x3b, 0x24, 0x44, 0x4d, 0xbe, 0xb8, 0xde, 0xbb, 0x3e,
  0x4a, 0x02, 0x33, 0xbc, 0xf5, 0x37, 0x19, 0xbe, 0x9f, 0x9e, 0xf5, 0x3d,
  0x5f, 0x9c, 0xa1, 0x3e, 0xbc, 0xdc, 0xb4, 0xbd, 0x34, 0x3a, 0x0a, 0x3e,
  0xa7, 0xff, 0xdd, 0x3e, 0x88, 0xe6, 0x1d, 0x3d, 0xfc, 0x49, 0xb2, 0xbd,
  0xe8, 0x4c, 0x00, 0x40, 0x9c, 0x73, 0xad, 0x3e, 0x50, 0xf1, 0x47, 0x3e,
  0xac, 0xc0, 0x59, 0xbe, 0xf6, 0x87, 0x07, 0x3e, 0xb1, 0x09, 0x01, 0x3d,
  0x45, 0xc2, 0xb0, 0x3e, 0x59, 0xcd, 0x12, 0x3d, 0x41, 0xd3, 0x5a, 0xbd,
  0x17, 0x24, 0x10, 0x3e, 0xf2, 0x3d, 0x42, 0x3d, 0x26, 0x92, 0xf2, 0x3b,
  0xa3, 0x56, 0x4a, 0x3e, 0xc1, 0xaa, 0x76, 0x3e, 0x04, 0x24, 0x2e, 0xbe,
  0xe0, 0x44, 0x9c, 0x3d, 0x78, 0x34, 0x02, 0x40, 0x73, 0xd2, 0xd6, 0x3e,
  0x1a, 0xed, 0x18, 0x3d, 0x5e, 0xca, 0x99, 0xbe, 0x41, 0x51, 0xb7, 0xbd,
  0xa6, 0x6e, 0xea, 0x3d, 0xa7, 0x42, 0x65, 0x3e, 0x99, 0x8a, 0x8b, 0xbd,
  0x3f, 0xff, 0x51, 0xbe, 0xa7, 0x78, 0xaf, 0x3e, 0xa1, 0x6e, 0xa8, 0xbd,
  0x6e, 0xca, 0x23, 0x3d, 0x7a, 0x63, 0xef, 0xbc, 0xf5, 0xc3, 0x8a, 0x3e,
  0x80, 0x89, 0xb1, 0x3d, 0xc2, 0xc8, 0x08, 0x3e, 0xe4, 0x0b, 0x98, 0x3f,
  0x5d, 0xa8, 0x8f, 0x3e, 0x12, 0xd1, 0x1a, 0xbb, 0x9d, 0xfa, 0x8d, 0xbd,
  0xa1, 0x2c, 0x92, 0xbe, 0xde, 0xee, 0x3c, 0xbe, 0xff, 0xb0, 0x9c, 0x3e,
  0xe5, 0xe5, 0x5c, 0xbc, 0xde, 0x4d, 0x5d, 0xbe, 0xe3, 0xc3, 0xd5, 0x3e,
  0x7b, 0x2f, 0xdd, 0x3d, 0x4b, 0xa0, 0xbe, 0xbd, 0x58, 0x42, 0x2c, 0xbe,
  0xa6, 0xc5, 0x91, 0x3d, 0x28, 0x68, 0x5d, 0x3e, 0x5a, 0x99, 0xfe, 0x3c,
  0x0d, 0x0d, 0xf5, 0x3f, 0xae, 0xcb, 0xc1, 0x3e, 0x45, 0x32, 0xca, 0x3e,
  0xc4, 0xf7, 0xd1, 0xbe, 0x37, 0x2c, 0x27, 0xbe, 0x3f, 0x14, 0x1a, 0xbe,
  0xa1, 0x5f, 0x6f, 0xbd, 0x37, 0x7d, 0xa0, 0xbc, 0x6c, 0x2c, 0x65, 0xbe,
  0x87, 0xa2, 0xbc, 0x3d, 0xa8, 0x4b, 0x39, 0x3d, 0xa7, 0x7b, 0xcb, 0xbd,
  0xa9, 0x1d, 0x67, 0x3d, 0x2d, 0xab, 0x3b, 0x3e, 0xc5, 0x3c, 0xd9, 0x3a,
  0x52, 0x58, 0x82, 0xbd, 0x2f, 0xa7, 0xba, 0xbc, 0xb5, 0x85, 0x28, 0xbe,
  0xf6, 0x2c, 0x2b, 0x3e, 0xb4, 0x75, 0x14, 0xbe, 0xd3, 0xf4, 0x06, 0x3e,
  0xb2, 0x88, 0xfe, 0x3d, 0x61, 0x01, 0xbf, 0x3d, 0x00, 0xbd, 0x78, 0x3d,
  0x22, 0xe7, 0x5e, 0x3d, 0xe2, 0x22, 0x33, 0x3d, 0x63, 0xe2, 0xdb, 0x3c,
  0x4d, 0xa6, 0x46, 0x3c, 0xeb, 0xa3, 0x3f, 0xbd, 0xac, 0xf0, 0xcf, 0x3d,
  0x67, 0x40, 0xeb, 0xbd, 0x8c, 0xff, 0x0a, 0x3e, 0xf0, 0x93, 0x9e, 0xbe,
  0xd4, 0xb0, 0xbc, 0x3b, 0x9f, 0xa6, 0x9a, 0x3d, 0x23, 0xf2, 0xcd, 0xbb,
  0xda, 0x27, 0xda, 0xbd, 0x2d, 0x3b, 0xb0, 0xbd, 0x34, 0x7a, 0x2c, 0x3e,
  0x39, 0xe0, 0xfe, 0x3c, 0xca, 0x07, 0x0e, 0xbd, 0x75, 0x01, 0x4e, 0x3d,
  0x40, 0x20, 0xa3, 0x3d, 0xcc, 0x62, 0x44, 0xbd, 0xb6, 0x0e, 0xde, 0x3d,
  0x39, 0x56, 0x0c, 0xbe, 0x93, 0xf3, 0xb0, 0xbe, 0x8c, 0x1c, 0x1c, 0x3e,
  0x7f, 0x01, 0x50, 0xbe, 0x65, 0xbb, 0x72, 0xbd, 0x01, 0xc8, 0xa8, 0x3d,
  0x18, 0x5c, 0x18, 0x3d, 0x04, 0xac, 0xb2, 0xbd, 0x0d, 0xcd, 0x24, 0xbe,
  0x65, 0xe3, 0x1c, 0x3e, 0x2f, 0x0b, 0x20, 0x3d, 0x43, 0x59, 0x35, 0xbe,
  0x62, 0xbf, 0x5d, 0xbc, 0xd6, 0xd7, 0x7f, 0x3d, 0x8c, 0xb6, 0x71, 0xbe,
  0xbc, 0xf8, 0x77, 0x3e, 0x61, 0x09, 0x00, 0xbc, 0x84, 0x7a, 0x13, 0xbe,
  0x17, 0x2a, 0x2b, 0xbc, 0x6f, 0xad, 0x48, 0xbe, 0x1d, 0x68, 0xec, 0xbd,
  0x15, 0x60, 0xca, 0x3d, 0x42, 0xd3, 0x92, 0x3c, 0xb9, 0x03, 0x0d, 0xbe,
  0x3e, 0x3a, 0x41, 0xbd, 0x2d, 0x6d, 0x8e, 0xbb, 0x77, 0xd8, 0xa0, 0xbd,
  0xbe, 0x9b, 0x9b, 0xbe, 0xf6, 0xd9, 0xc8, 0x3d, 0xd5, 0xac, 0xb2, 0x3d,
  0x9d, 0xe4, 0x4b, 0xbe, 0x79, 0x58, 0x12, 0xbe, 0x54, 0xd0, 0xe3, 0x3c,
  0x1b, 0x5d, 0x86, 0xbd, 0x66, 0x00, 0x1b, 0xbe, 0x18, 0x53, 0xe4, 0xbd,
  0xa9, 0x9e, 0x1c, 0xbe, 0xf7, 0xec, 0x55, 0x3b, 0x5d, 0x1f, 0x51, 0xbd,
  0x6e, 0x53, 0xb8, 0x3d, 0xa8, 0x9e, 0x12, 0x3b, 0x80, 0x65, 0x7f, 0xbd,
  0x01, 0xf2, 0xd1, 0xbc, 0x92, 0x79, 0x41, 0xbd, 0xfd, 0xa6, 0x34, 0x3d,
  0x71, 0xcf, 0xca, 0x3d, 0xaf, 0x5c, 0xed, 0xbd, 0x46, 0x3c, 0xc0, 0x3c,
  0xf4, 0x53, 0x20, 0x3e, 0x1e, 0x58, 0x11, 0x3c, 0x5a, 0xa6, 0x2e, 0xbe,
  0xac, 0xec, 0x36, 0xbe, 0x99, 0xa2, 0x23, 0xbe, 0x08, 0x17, 0x58, 0xbd,
  0x93, 0x39, 0xf8, 0x3d, 0x5b, 0x6a, 0x11, 0x3e, 0x72, 0x2f, 0xca, 0x3d,
  0x53, 0x48, 0x30, 0x3b, 0x15, 0x06, 0xb8, 0xbd, 0xb8, 0x19, 0x86, 0x3d,
  0x77, 0x84, 0x63, 0xbe, 0x5a, 0x44, 0x9c, 0x3d, 0x4e, 0xd9, 0x30, 0x3d,
  0xf3, 0x1c, 0x1c, 0xbe, 0x2f, 0x40, 0x3f, 0x3e, 0x97, 0x51, 0x67, 0xbd,
  0xe2, 0x2f, 0x20, 0x3d, 0x58, 0x83, 0x49, 0xbd, 0x97, 0xa7, 0x81, 0xbd,
  0x10, 0x24, 0xeb, 0x3d, 0x62, 0xd8, 0x58, 0x3e, 0x11, 0x9a, 0x0e, 0xbe,
  0xe1, 0xfc, 0x93, 0xbd, 0x9e, 0x06, 0xb8, 0xbd, 0xf6, 0x76, 0x50, 0xbd,
  0xbf, 0x93, 0xbd, 0xbc, 0x50, 0x70, 0x55, 0x3c, 0xcf, 0xcf, 0x23, 0xbe,
  0xf5, 0xe2, 0x66, 0xbd, 0x93, 0x7a, 0x1e, 0xbd, 0xd3, 0x11, 0xde, 0xbc,
  0xbe, 0x74, 0x18, 0xbd, 0x85, 0xb6, 0x2f, 0x3d, 0x7d, 0xf5, 0xf6, 0xbb,
  0x93, 0x4c, 0xdc, 0x3b, 0x4a, 0x5f, 0xc2, 0xbd, 0x4a, 0x6e, 0xb9, 0x3b,
  0xc9, 0xfc, 0x16, 0x3e, 0xbd, 0x92, 0x04, 0xbe, 0x14, 0xe2, 0xef, 0xbd,
  0xb8, 0x3f, 0xa7, 0x3d, 0xfa, 0x04, 0xf8, 0x3d, 0x53, 0x72, 0x84, 0xbe,
  0xc3, 0xf3, 0x04, 0xbe, 0x24, 0xee, 0xc5, 0xbd, 0x9e, 0xc7, 0x42, 0x3d,
  0xf8, 0x1a, 0xbd, 0xbc, 0x46, 0x01, 0x56, 0xbe, 0x5a, 0x4e, 0xc3, 0xbd,
  0xa0, 0x9b, 0xdf, 0xbd, 0xda, 0x70, 0xc6, 0x3e, 0x23, 0xba, 0x84, 0x3d,
  0x5a, 0x8f, 0x45, 0xbe, 0xa8, 0x34, 0x10, 0x3e, 0x9c, 0x45, 0x16, 0xbe,
  0x14, 0x18, 0xb1, 0xbc, 0xc2, 0x1d, 0xe7, 0x3d, 0x83, 0xfa, 0x2a, 0x3e,
  0x4b, 0xe2, 0xc2, 0x3b, 0x14, 0x4b, 0x86, 0x3d, 0xa5, 0x7b, 0xf8, 0xbc,
  0x5a, 0xea, 0x91, 0x3d, 0x92, 0xb7, 0xcc, 0x3d, 0xe5, 0x1f, 0x8f, 0xbd,
  0xa3, 0xc2, 0x12, 0xbe, 0xbe, 0x9f, 0x40, 0x3f, 0xd0, 0xa8, 0x31, 0x3e,
  0x5b, 0xc9, 0x57, 0x3e, 0x5f, 0x11, 0x99, 0xbd, 0xc6, 0x07, 0x5d, 0x3e,
  0x13, 0xd6, 0xc9, 0xbc, 0x67, 0xd8, 0x18, 0x3b, 0x45, 0xb8, 0x93, 0x3d,
  0x95, 0xa9, 0xa7, 0x3c, 0x69, 0x9d, 0xde, 0xbd, 0xea, 0xfd, 0x83, 0xbd,
  0x92, 0x00, 0xdd, 0xbd, 0xd8, 0x13, 0x19, 0x3e, 0x29, 0x4b, 0xa0, 0x3d,
  0x21, 0x9c, 0xff, 0x3d, 0xc8, 0x42, 0x0d, 0xbe, 0x04, 0x35, 0x11, 0x3f,
  0xeb, 0x27, 0x89, 0x3d, 0x50, 0x70, 0x64, 0x3e, 0xe9, 0x25, 0x33, 0xbc,
  0x83, 0x3e, 0xf6, 0x3d, 0x27, 0xbd, 0xfa, 0xbd, 0x80, 0x24, 0x18, 0xbe,
  0xe9, 0x19, 0x99, 0x3d, 0x33, 0x62, 0x07, 0x3c, 0xca, 0x2d, 0x9d, 0xbe,
  0xad, 0x8c, 0x86, 0x3e, 0x8d, 0x62, 0x07, 0xbe, 0x7b, 0xf3, 0x78, 0xbe,
  0x45, 0x04, 0x44, 0x3d, 0x59, 0xd9, 0xca, 0x3e, 0xba, 0xc5, 0x2e, 0x3e,
  0xbd, 0xbf, 0xb7, 0x3e, 0xff, 0xf3, 0x4e, 0x3e, 0x3c, 0xd8, 0x06, 0x3e,
  0x68, 0xf4, 0xb1, 0xbe, 0x70, 0x81, 0xf6, 0x3d, 0x03, 0x0f, 0xd6, 0xbd,
  0xd0, 0xa7, 0x3c, 0xbd, 0xac, 0x74, 0x0f, 0x3e, 0xda, 0xe8, 0xfe, 0xbc,
  0x86, 0x88, 0x74, 0xbe, 0x5b, 0xc3, 0xb4, 0x3d, 0x7d, 0x34, 0xc8, 0xbe,
  0x94, 0xc1, 0x4e, 0xbc, 0x02, 0xd9, 0xce, 0xbd, 0x55, 0x4b, 0x09, 0x3e,
  0x21, 0x4c, 0x68, 0xbe, 0x1f, 0x25, 0x7f, 0x3e, 0xa3, 0xc9, 0x51, 0x3e,
  0x32, 0x4f, 0xa1, 0x3e, 0x29, 0x04, 0x42, 0xbe, 0xbe, 0xc5, 0x85, 0x3e,
  0xbd, 0x2c, 0x17, 0xbe, 0x1f, 0xb2, 0x03, 0x3c, 0x49, 0x4a, 0x4d, 0x3e,
  0x5e, 0x35, 0x4f, 0x3e, 0x15, 0x0c, 0xc5, 0xbe, 0x9b, 0x87, 0x34, 0xbd,
  0x0b, 0x96, 0xc6, 0xbe, 0xb1, 0xb8, 0x1b, 0xbe, 0x11, 0x02, 0x12, 0xbd,
  0xb0, 0xea, 0x73, 0xbe, 0x17, 0x8c, 0xbb, 0xbe, 0x15, 0xe7, 0xee, 0x3e,
  0xf3, 0x6c, 0x7c, 0x3e, 0x3b, 0x20, 0x80, 0x3d, 0x8f, 0x9e, 0xb7, 0xbe,
  0x37, 0x49, 0xb4, 0xbd, 0x67, 0xdd, 0x04, 0x3e, 0xed, 0xf2, 0x1a, 0xbf,
  0x77, 0xde, 0xe0, 0xbc, 0xe9, 0x7b, 0xe8, 0xbd, 0x43, 0x51, 0x52, 0xbf,
  0x32, 0xfd, 0xa6, 0xbc, 0x43, 0x5b, 0xb2, 0xbe, 0xdb, 0xa9, 0x4f, 0x3e,
  0x7f, 0xc9, 0x50, 0xbe, 0x36, 0x94, 0xa8, 0x3e, 0x98, 0xa9, 0x41, 0xbf,
  0x95, 0x06, 0x58, 0xbe, 0x90, 0x68, 0x1e, 0xbf, 0x2a, 0x9f, 0x5a, 0xbe,
  0x1c, 0xef, 0x1b, 0xbd, 0xcc, 0x07, 0xd3, 0x3b, 0xfd, 0xaf, 0x47, 0xbe,
  0x92, 0xe6, 0xd1, 0xbe, 0xae, 0xc1, 0x82, 0xbd, 0x64, 0x7a, 0xb3, 0xbe,
  0x07, 0x53, 0xb6, 0xbe, 0xb7, 0xdd, 0x17, 0xbe, 0x82, 0xcd, 0xc5, 0xbe,
  0x7e, 0xb1, 0x3f, 0x3e, 0x27, 0xd0, 0x54, 0xbf, 0xcd, 0x4b, 0xb2, 0xbd,
  0x4a, 0x72, 0x07, 0xbf, 0xda, 0x4a, 0x2e, 0x3c, 0x92, 0xcc, 0xad, 0x3b,
  0x74, 0xca, 0xb7, 0xbd, 0x31, 0x1a, 0x8e, 0xbe, 0xfd, 0x3b, 0xab, 0x3d,
  0x06, 0x06, 0x53, 0xbd, 0xc9, 0x68, 0x8c, 0xbe, 0x8d, 0xaf, 0x87, 0x3d,
  0x3f, 0xfe, 0x09, 0x3e, 0x24, 0x1b, 0x07, 0xbe, 0x96, 0x1e, 0xf9, 0xbc,
  0x3a, 0xbb, 0x32, 0xbe, 0x4f, 0xa7, 0x5e, 0x3d, 0xf2, 0x1e, 0x60, 0xbd,
  0xb8, 0xf4, 0x31, 0xbe, 0xe9, 0xb1, 0x15, 0xbf, 0xfa, 0x08, 0x27, 0x3b,
  0x7e, 0x24, 0xe2, 0x3a, 0xbe, 0xd7, 0x9e, 0xbe, 0xb9, 0x93, 0xe3, 0xbe,
  0xc2, 0xcc, 0x41, 0x3d, 0x4a, 0xdf, 0x0f, 0xbd, 0x1a, 0x58, 0x18, 0x3e,
  0xe9, 0xe9, 0x38, 0xbc, 0x97, 0x9b, 0x10, 0xbe, 0x59, 0x21, 0xe9, 0xbc,
  0xa3, 0x8f, 0x88, 0xbc, 0x34, 0x29, 0x43, 0xbd, 0x00, 0x7c, 0x9b, 0xbd,
  0xd2, 0xff, 0xb4, 0x39, 0xc8, 0x4b, 0xbf, 0xbc, 0xd1, 0x78, 0x2c, 0x3c,
  0xd4, 0x76, 0xc8, 0xbd, 0x4d, 0x16, 0x47, 0xbd, 0x60, 0xf0, 0xc6, 0xbc,
  0xff, 0x64, 0x03, 0xbf, 0x78, 0xad, 0x90, 0x3d, 0xeb, 0x16, 0x08, 0xbe,
  0xc4, 0xb6, 0x0a, 0x3e, 0xee, 0x4d, 0xc8, 0xbc, 0xb7, 0x29, 0xd9, 0x3c,
  0x71, 0x69, 0x43, 0x3c, 0x26, 0x4c, 0x30, 0xbc, 0x40, 0x4e, 0x18, 0xbd,
  0xfe, 0x30, 0x5b, 0xbe, 0x75, 0x01, 0xf8, 0x3b, 0x84, 0x31, 0x14, 0xbe,
  0x57, 0x16, 0x31, 0x3d, 0x9d, 0x96, 0x9a, 0xbd, 0x57, 0xe0, 0xb3, 0xbd,
  0x0b, 0xb9, 0x74, 0xbe, 0xd2, 0xf7, 0x9d, 0xbd, 0x0e, 0x67, 0xd6, 0xbc,
  0x05, 0x6c, 0x53, 0xbe, 0x7d, 0x01, 0xb6, 0x3c, 0xfb, 0x36, 0xc0, 0xbd,
  0x67, 0x80, 0xca, 0xbd, 0x43, 0x8d, 0x02, 0x3d, 0xd5, 0x5a, 0x50, 0x3d,
  0x1d, 0xba, 0x8d, 0xbd, 0x84, 0x63, 0x90, 0xbb, 0x5a, 0x41, 0x2f, 0x3d,
  0x57, 0xf8, 0x20, 0xbe, 0xa5, 0xf4, 0xb8, 0x3d, 0x13, 0xee, 0xb4, 0xbd,
  0xee, 0x2b, 0xfb, 0xbd, 0x94, 0x03, 0xeb, 0xbd, 0xe7, 0xb1, 0xb3, 0x3d,
  0xd9, 0x95, 0x9b, 0x3d, 0xe6, 0xcf, 0x0b, 0x3d, 0x43, 0x66, 0xac, 0xbc,
  0x6e, 0xa4, 0x0a, 0xbd, 0x8d, 0x50, 0x4b, 0xbd, 0x47, 0xaf, 0xbc, 0x3d,
  0x1c, 0x7e, 0xc8, 0x3d, 0x1d, 0x62, 0x80, 0xbd, 0x56, 0x82, 0xf7, 0x3c,
  0x53, 0xf1, 0x35, 0x3d, 0xf5, 0x15, 0x89, 0xbd, 0xdb, 0x95, 0x8e, 0x3d,
  0x8f, 0x50, 0x9a, 0xbe, 0xf9, 0x4f, 0x3c, 0x3c, 0xdf, 0x1c, 0x6d, 0xbd,
  0x05, 0x8d, 0x49, 0x3e, 0xd8, 0xf4, 0x02, 0x3e, 0x22, 0x23, 0x3d, 0x3d,
  0x51, 0x37, 0x04, 0x3d, 0x1e, 0x9c, 0x2d, 0xbe, 0xda, 0xd6, 0x9d, 0x3d,
  0x83, 0x4b, 0xb5, 0x3b, 0x02, 0x20, 0xa8, 0x3d, 0x30, 0x0b, 0xfe, 0x3c,
  0xde, 0x70, 0xe2, 0xbd, 0x99, 0x5d, 0x82, 0x3d, 0xac, 0xa2, 0xae, 0x3c,
  0x96, 0xe2, 0x31, 0x3d, 0xfa, 0x37, 0x5e, 0xbd, 0x60, 0xd2, 0x37, 0xbd,
  0x08, 0xf1, 0x65, 0xbd, 0x3c, 0x79, 0x30, 0xbd, 0x6f, 0x99, 0x3b, 0xbe,
  0xe6, 0x6b, 0xc6, 0xbd, 0xf8, 0x86, 0xad, 0xbd, 0x81, 0x29, 0xc8, 0xbd,
  0x57, 0xc3, 0xaf, 0xbd, 0xde, 0xa8, 0xca, 0x3c, 0xdc, 0x56, 0x2e, 0xbd,
  0x7c, 0xa5, 0x53, 0xbe, 0x3a, 0x11, 0x96, 0xbd, 0x5d, 0xd9, 0x23, 0xbd,
  0x01, 0x48, 0xa2, 0x3d, 0xa5, 0xb0, 0x19, 0xbe, 0x8b, 0x34, 0x8f, 0x3e,
  0x8f, 0x86, 0x91, 0x3e, 0x0b, 0xca, 0xdb, 0x3c, 0x7e, 0xad, 0xdf, 0xbd,
  0xb4, 0x8d, 0x5c, 0xbc, 0x76, 0x02, 0xdf, 0x3d, 0x0a, 0xe9, 0xce, 0x3d,
  0x72, 0x1c, 0xa6, 0xbe, 0x08, 0x6a, 0x3d, 0xbe, 0x4b, 0x1e, 0x80, 0xbb,
  0xcd, 0xc2, 0xba, 0xbd, 0x2c, 0xe7, 0x3e, 0xbe, 0x3a, 0xaa, 0xb4, 0x3d,
  0x7d, 0x54, 0x85, 0x3d, 0x04, 0xcc, 0x87, 0xbc, 0x4e, 0x8d, 0x3d, 0xbd,
  0xe6, 0x62, 0xb8, 0x3f, 0x64, 0x40, 0x93, 0x3e, 0x28, 0xaa, 0x76, 0x3d,
  0x66, 0xb8, 0x2a, 0xbc, 0x91, 0x15, 0x1f, 0x3e, 0x81, 0x86, 0xce, 0xbd,
  0x33, 0xd7, 0x64, 0xbd, 0x2d, 0xc8, 0x07, 0xbe, 0x59, 0xdf, 0x61, 0xbc,
  0xed, 0x5f, 0x50, 0xbe, 0xd0, 0xca, 0xc1, 0xba, 0x2c, 0xd4, 0xbc, 0xbd,
  0xb4, 0x3c, 0x51, 0x3c, 0xdb, 0x41, 0x1f, 0x3e, 0x4f, 0xba, 0x85, 0x3d,
  0x2a, 0xa8, 0x76, 0xbe, 0xe8, 0xab, 0xb5, 0x3f, 0xf9, 0xb3, 0xe3, 0x3e,
  0x38, 0x12, 0x0f, 0xbd, 0xce, 0xc7, 0xf6, 0x3c, 0x27, 0x18, 0xb1, 0x3d,
  0xda, 0x84, 0xf2, 0x3b, 0xcc, 0x1e, 0x61, 0xbd, 0x8f, 0xe5, 0x09, 0x3e,
  0xee, 0x0c, 0xbe, 0x3c, 0xf2, 0x75, 0xbe, 0x3d, 0xac, 0xd5, 0xb6, 0x3d,
  0xce, 0x69, 0xbf, 0x3d, 0x1d, 0x0f, 0xff, 0x3d, 0xeb, 0xd7, 0x7d, 0x3d,
  0xdc, 0xe2, 0xe9, 0xbd, 0x19, 0x53, 0xee, 0xbc, 0xd2, 0x12, 0xd1, 0x3f,
  0x44, 0x76, 0x2e, 0x3e, 0x75, 0x37, 0xbf, 0xbd, 0xc6, 0x9a, 0xa3, 0xbe,
  0x29, 0x3e, 0x27, 0xbc, 0x31, 0x72, 0x96, 0x3d, 0xc5, 0xbc, 0x10, 0xbe,
  0x8e, 0x45, 0x59, 0x3d, 0x98, 0x6a, 0x1f, 0x3d, 0x3f, 0xb9, 0x8d, 0x3e,
  0xbf, 0x4b, 0x86, 0xbd, 0x57, 0xf4, 0xbe, 0xbd, 0xad, 0x13, 0x9a, 0xbd,
  0x39, 0xb2, 0x4b, 0x3e, 0x1a, 0x63, 0xbe, 0xbd, 0xdf, 0xff, 0x94, 0xbe,
  0x4e, 0xe8, 0x55, 0x3f, 0x10, 0x73, 0xa9, 0x3e, 0xeb, 0x8a, 0x0f, 0x3e,
  0xb1, 0x1f, 0x29, 0xbc, 0x09, 0xba, 0x0f, 0x3e, 0x53, 0xcc, 0xb1, 0xbe,
  0x79, 0x8b, 0x23, 0xbc, 0x6b, 0xab, 0x3c, 0x3e, 0x22, 0xf8, 0xef, 0xbd,
  0x8c, 0x86, 0x8d, 0xbb, 0x87, 0x79, 0x7b, 0xbc, 0x39, 0x96, 0x94, 0xbe,
  0xb3, 0x68, 0xc9, 0xbd, 0x69, 0x80, 0x5c, 0xbe, 0xe5, 0x69, 0x79, 0x3c,
  0x9f, 0x88, 0x5d, 0xbe, 0x69, 0x46, 0x90, 0x3f, 0x20, 0x10, 0x0f, 0x3e,
  0x5b, 0xe7, 0x4c, 0x3e, 0xdc, 0x32, 0x85, 0xbd, 0x77, 0x09, 0x7d, 0x3c,
  0xd8, 0xdd, 0x1e, 0xbe, 0xc7, 0xe6, 0x3a, 0xbe, 0xbb, 0x5e, 0x03, 0x3e,
  0x50, 0xc0, 0x7e, 0xbd, 0x42, 0x8a, 0xd7, 0x3c, 0x25, 0x8b, 0x1c, 0x3d,
  0x4d, 0x25, 0x8a, 0xbe, 0xc5, 0xb8, 0x4a, 0xbe, 0xcf, 0xfe, 0xde, 0xbd,
  0x86, 0x9e, 0x04, 0xbe, 0x44, 0x0c, 0xa9, 0xbe, 0x95, 0xd5, 0xc6, 0xbd,
  0x08, 0xb7, 0x01, 0xbe, 0xd5, 0xef, 0x66, 0xbe, 0x77, 0xe8, 0xc6, 0xbc,
  0xed, 0xfb, 0x4d, 0xbe, 0x76, 0x30, 0x7f, 0x3d, 0xa7, 0x51, 0x87, 0x3e,
  0x57, 0x5a, 0x9d, 0xbe, 0xcc, 0x41, 0xf3, 0xbd, 0xc5, 0x0a, 0xab, 0x3e,
  0x52, 0xe6, 0x33, 0xbc, 0xdb, 0x54, 0x6f, 0xbd, 0x81, 0x40, 0x19, 0x3e,
  0xcf, 0xf2, 0x12, 0xbd, 0x0a, 0x08, 0x65, 0xbd, 0x12, 0x0b, 0xd6, 0xbb,
  0x88, 0xe8, 0xb9, 0xbd, 0x29, 0xc3, 0xcc, 0x3d, 0xff, 0xd1, 0x81, 0xbe,
  0x27, 0x8c, 0x80, 0xbe, 0x2b, 0x53, 0x8c, 0xbd, 0xcf, 0xa7, 0x22, 0x3e,
  0x32, 0x4d, 0x50, 0x3e, 0xcd, 0xc4, 0x7c, 0xbe, 0xca, 0x6d, 0x20, 0xbd,
  0x88, 0x3e, 0x4d, 0x3e, 0x02, 0x09, 0xd8, 0x3d, 0x99, 0x76, 0xa2, 0x3c,
  0xb3, 0xd1, 0x33, 0xbe, 0xaf, 0xa1, 0x82, 0x3d, 0xa3, 0xc7, 0xff, 0x3a,
  0xc4, 0x03, 0xce, 0xbc, 0xa7, 0x15, 0x03, 0x40, 0x4f, 0xa7, 0xee, 0x3d,
  0xe8, 0xec, 0xa0, 0x3e, 0x35, 0xef, 0x3b, 0xbe, 0xef, 0x93, 0x31, 0xbd,
  0x8a, 0x12, 0x4e, 0x3d, 0x41, 0x2c, 0xa7, 0x3e, 0x40, 0x70, 0xc8, 0xbe,
  0xf4, 0x9f, 0xdd, 0x3c, 0x6c, 0x2f, 0xc4, 0x3d, 0x92, 0x01, 0x9a, 0x3e,
  0x5d, 0xd1, 0x84, 0xbd, 0xa3, 0x7d, 0x67, 0x3d, 0x9c, 0xbd, 0x56, 0x3e,
  0x73, 0xe7, 0x3c, 0xbe, 0x52, 0xff, 0x49, 0xbd, 0x8a, 0x03, 0xd6, 0x3f,
  0x79, 0xf8, 0x2e, 0x3e, 0xe4, 0x53, 0x8b, 0x3e, 0x72, 0xec, 0x29, 0xbd,
  0xad, 0xc8, 0xa1, 0xbe, 0x7d, 0x41, 0x03, 0xbc, 0x6c, 0x20, 0xe1, 0x3e,
  0xa9, 0x42, 0x16, 0xbe, 0x8f, 0x3a, 0x37, 0xbe, 0x23, 0xd6, 0x79, 0x3e,
  0x76, 0xc8, 0xaf, 0x3e, 0xec, 0x01, 0x57, 0xbd, 0xff, 0x64, 0x36, 0x3e,
  0x1f, 0xae, 0x36, 0x3e, 0xfa, 0x71, 0x36, 0x3e, 0x4d, 0xe7, 0x69, 0x3d,
  0x6b, 0xb5, 0xdf, 0x3f, 0x78, 0x69, 0x7b, 0x3e, 0x5a, 0xcc, 0xee, 0xbc,
  0x36, 0xc4, 0x3f, 0x3d, 0x55, 0xaa, 0x33, 0xbf, 0xe6, 0xcb, 0xc7, 0x3d,
  0x72, 0xcf, 0xd0, 0x3e, 0x2b, 0xc6, 0x9e, 0xbe, 0xe3, 0x8f, 0xb8, 0xbe,
  0x6e, 0xe6, 0x1c, 0x3e, 0x74, 0x3f, 0xc1, 0x3d, 0x30, 0xa5, 0x33, 0xbd,
  0x2a, 0x55, 0xbf, 0x3c, 0x57, 0x33, 0xfd, 0x3d, 0x6e, 0xeb, 0x93, 0x3e,
  0xe9, 0x4a, 0xab, 0x3d, 0xdc, 0xaa, 0x98, 0x3f, 0x1b, 0x5f, 0x64, 0x3e,
  0xe5, 0xb5, 0x22, 0xbe, 0x6a, 0x3d, 0xee, 0xbd, 0x54, 0xc1, 0xab, 0xbe,
  0x58, 0x99, 0xd5, 0xbb, 0xf4, 0x04, 0x6f, 0x3e, 0xe9, 0x64, 0x92, 0xbe,
  0x4a, 0xe7, 0x93, 0xbe, 0x0c, 0x9c, 0x4e, 0x3e, 0xdc, 0x96, 0x9e, 0x3c,
  0x97, 0xd8, 0x98, 0x3a, 0x3a, 0x67, 0x32, 0x3e, 0xdd, 0x33, 0x1d, 0x3d,
  0x48, 0xe5, 0x69, 0x3c, 0x48, 0x31, 0x26, 0x3d, 0xdf, 0xe8, 0xbb, 0x3f,
  0xb9, 0xe5, 0xe8, 0x3d, 0xaa, 0xfe, 0xa2, 0xba, 0xc6, 0xa4, 0x59, 0xbe,
  0xf8, 0xaa, 0x1d, 0xbe, 0x1d, 0xe8, 0x28, 0x3d, 0x67, 0xca, 0x51, 0x3d,
  0x3b, 0x3f, 0x3a, 0xbd, 0xb0, 0x85, 0x7b, 0x3c, 0x8d, 0x11, 0xac, 0x3d,
  0x12, 0x94, 0xd9, 0xbb, 0x0a, 0x7b, 0xfe, 0xbc, 0x6a, 0x10, 0xb0, 0xbb,
  0x27, 0xd4, 0xcb, 0x3c, 0xcd, 0x75, 0x0f, 0x3e, 0xe1, 0x8e, 0xbe, 0x3c,
  0x0c, 0x15, 0x98, 0xbc, 0x13, 0x95, 0x2e, 0xbd, 0x8a, 0xae, 0xaf, 0x3d,
  0x7c, 0xb3, 0x4b, 0xbd, 0x42, 0xdc, 0xa7, 0xbe, 0x01, 0x97, 0x37, 0xbd,
  0xa5, 0x86, 0xc1, 0xbd, 0xe1, 0x39, 0x89, 0xbe, 0x79, 0x6d, 0x13, 0xbe,
  0x5c, 0xbc, 0x58, 0xbd, 0xdf, 0x72, 0x1a, 0xbc, 0xa6, 0x9e, 0x81, 0xbd,
  0x8d, 0x34, 0xa2, 0x3c, 0xda, 0x49, 0x18, 0xbe, 0x74, 0x1c, 0x15, 0x3f,
  0xf6, 0xe2, 0x1f, 0xbe, 0x5f, 0x88, 0xb6, 0x3e, 0xda, 0x3a, 0xf3, 0x3d,
  0xf6, 0xcf, 0xe5, 0x3c, 0x41, 0x25, 0x13, 0xbd, 0x42, 0x73, 0x30, 0xbe,
  0x62, 0x2a, 0x1a, 0xbd, 0x65, 0x81, 0x03, 0xbe, 0x59, 0xb2, 0xf4, 0xbd,
  0x34, 0x0e, 0xbb, 0xbd, 0x63, 0xea, 0xcd, 0x3c, 0xd1, 0xfd, 0x9c, 0xbc,
  0x9a, 0xc1, 0x27, 0xbe, 0x82, 0xaf, 0xa7, 0x3c, 0xd9, 0x3b, 0x03, 0x3e,
  0xd7, 0x55, 0x03, 0x3e, 0x00, 0x61, 0x36, 0xbd, 0x59, 0xcc, 0x01, 0x3e,
  0xaa, 0x3e, 0xaa, 0x3c, 0xfe, 0x61, 0x20, 0xbe, 0x69, 0xb3, 0x3d, 0x3d,
  0x9c, 0x6a, 0xdb, 0x3a, 0x02, 0x37, 0x0a, 0x3d, 0x3d, 0x34, 0xe7, 0xbd,
  0x73, 0x56, 0x40, 0xbd, 0x97, 0x83, 0x1d, 0x3d, 0xfd, 0x8b, 0x1c, 0x3e,
  0xc5, 0x79, 0x08, 0xbe, 0xbe, 0x14, 0x35, 0xbe, 0x5c, 0x27, 0x50, 0x3b,
  0xd5, 0xa4, 0x97, 0x3b, 0x1b, 0x9f, 0xb9, 0x3e, 0x4e, 0x42, 0xc9, 0xbd,
  0xaa, 0x8e, 0x4e, 0x3e, 0x02, 0x96, 0x95, 0xbd, 0x16, 0xa6, 0x42, 0xbd,
  0x6c, 0x7a, 0x8c, 0x3e, 0xe9, 0x50, 0x4d, 0xbe, 0x54, 0x4d, 0xb9, 0x3d,
  0xf2, 0xb6, 0xf2, 0xbd, 0x86, 0x82, 0x5d, 0xbe, 0x73, 0x0c, 0xa4, 0xbd,
  0x4e, 0x60, 0x46, 0x3c, 0xff, 0x9f, 0xc2, 0xbd, 0xd8, 0x27, 0xba, 0xbe,
  0x5b, 0xb7, 0x2c, 0x3e, 0x56, 0x2a, 0x78, 0x3e, 0x20, 0x66, 0x36, 0xbe,
  0x00, 0x93, 0x05, 0xbb, 0xce, 0x03, 0x15, 0x3e, 0x12, 0x65, 0xea, 0xbd,
  0xf5, 0xb5, 0x39, 0xbe, 0xf3, 0x6e, 0x9b, 0x3e, 0x80, 0x6b, 0x18, 0xbd,
  0xe5, 0xc5, 0xc8, 0x3d, 0xeb, 0x3c, 0x9b, 0xbe, 0xf0, 0x66, 0x37, 0xbd,
  0xd6, 0x06, 0x93, 0xbe, 0xc1, 0x5a, 0xa5, 0x3e, 0xd7, 0xff, 0x3f, 0x3d,
  0xe8, 0xc6, 0xc2, 0xbe, 0x11, 0x82, 0x40, 0x3e, 0x46, 0x34, 0xc4, 0xbc,
  0x1f, 0xde, 0x1c, 0x3e, 0x0b, 0xd8, 0x6a, 0x3d, 0x2b, 0x51, 0x8e, 0x3d,
  0x33, 0xd7, 0xf3, 0xbc, 0x46, 0x90, 0x96, 0xbe, 0xff, 0x28, 0x75, 0x3e,
  0xf7, 0x41, 0xe2, 0xbd, 0x23, 0x64, 0x5d, 0x3d, 0xba, 0xdc, 0xb0, 0xbd,
  0x7d, 0xb5, 0xa8, 0xbd, 0xf1, 0xfc, 0x9a, 0xbe, 0x1e, 0x67, 0xa4, 0x3d,
  0xa3, 0x48, 0x5f, 0xbe, 0x09, 0xb1, 0x86, 0xbe, 0x89, 0xea, 0xc5, 0xbd,
  0xe4, 0x76, 0x42, 0xbe, 0xb2, 0x16, 0x7f, 0x3e, 0xbf, 0x9e, 0x4f, 0xbd,
  0x29, 0xff, 0x2d, 0x3e, 0xb5, 0xd5, 0x29, 0x3e, 0xb6, 0xa0, 0xcf, 0xbd,
  0xea, 0xe9, 0xc6, 0x3d, 0x41, 0xb7, 0x46, 0xbd, 0x6a, 0x0b, 0x6c, 0xbe,
  0x0a, 0x7d, 0xe1, 0x3c, 0x53, 0x01, 0xc8, 0xbd, 0xe7, 0x4a, 0xb9, 0xbe,
  0xb4, 0x7d, 0x80, 0x3e, 0x9c, 0x53, 0x82, 0xbe, 0x69, 0x2f, 0xd1, 0xbe,
  0xe2, 0x19, 0x19, 0x3e, 0x9c, 0x4d, 0x94, 0xbe, 0x96, 0xf1, 0xfe, 0xbc,
  0xa6, 0xf9, 0x01, 0xbd, 0x7c, 0xb8, 0x07, 0x3d, 0x09, 0x61, 0x44, 0x3c,
  0xc3, 0xab, 0x14, 0xbd, 0x58, 0xa4, 0xf6, 0x3c, 0x9a, 0xa8, 0xd2, 0x3c,
  0x8c, 0x47, 0x4c, 0x3d, 0xb9, 0x6c, 0x41, 0xbe, 0x86, 0xe5, 0x22, 0x3c,
  0x52, 0x35, 0x81, 0xbc, 0x05, 0xe0, 0x8d, 0xbe, 0x67, 0x2e, 0x88, 0xbc,
  0x97, 0x05, 0xe1, 0xbd, 0xa4, 0x05, 0x2c, 0x3c, 0x27, 0x14, 0x9a, 0xbe,
  0xd8, 0xe4, 0x82, 0x3e, 0x42, 0x0d, 0xbb, 0xbe, 0x0f, 0x60, 0x81, 0xbc,
  0x60, 0x41, 0xc4, 0x3b, 0x93, 0x37, 0xbf, 0x3d, 0xe9, 0x01, 0x54, 0x3b,
  0xb8, 0x34, 0xf4, 0x3d, 0x00, 0x68, 0x39, 0x3e, 0x99, 0x32, 0x04, 0x3e,
  0x70, 0xf0, 0xa1, 0x3d, 0x81, 0xf3, 0x9f, 0x3d, 0x29, 0xce, 0xa1, 0x3c,
  0x72, 0x99, 0x3b, 0xbc, 0xdf, 0xc3, 0xbf, 0xbe, 0x77, 0xc3, 0x9c, 0x3d,
  0x02, 0x1c, 0x17, 0xbd, 0x0a, 0xd6, 0x9e, 0x3e, 0xb7, 0xc4, 0x5c, 0xbe,
  0x7c, 0x0e, 0x1a, 0xbd, 0x28, 0x8d, 0xd8, 0x3d, 0x9e, 0x09, 0xd9, 0x3b,
  0x7c, 0x15, 0xfa, 0x3d, 0x1d, 0x5a, 0xe7, 0xbd, 0x39, 0x82, 0x06, 0x3d,
  0xb2, 0x13, 0xef, 0x3d, 0x00, 0x10, 0xe0, 0x3d, 0x0b, 0x43, 0x1e, 0xbd,
  0x07, 0x3e, 0x5a, 0xbd, 0x2b, 0xb9, 0xa5, 0x3d, 0xb7, 0x42, 0x03, 0xbe,
  0xa0, 0xa6, 0x9b, 0xbd, 0xdc, 0xfc, 0xe0, 0xbe, 0x9f, 0x84, 0x2b, 0x3e,
  0x13, 0x08, 0x90, 0xbd, 0x79, 0x5c, 0x23, 0x3c, 0x06, 0xb4, 0x22, 0x3e,
  0x19, 0x42, 0xd1, 0xbc, 0x65, 0xec, 0x62, 0x3e, 0xd1, 0xcc, 0xbd, 0xbc,
  0xd0, 0x98, 0x79, 0x3d, 0xda, 0xa0, 0x20, 0xbe, 0xec, 0x9e, 0x37, 0x3d,
  0x7f, 0xac, 0x61, 0xbe, 0x7d, 0xdb, 0x45, 0x3d, 0x4b, 0x1f, 0x54, 0x3d,
  0xdc, 0xa2, 0x67, 0xbe, 0x75, 0x76, 0x0c, 0x3d, 0x4d, 0x94, 0x9c, 0xbe,
  0xaf, 0x7c, 0xad, 0x3e, 0xa9, 0x1c, 0xa1, 0xbc, 0x78, 0x40, 0xab, 0xbd,
  0xd0, 0x68, 0x5e, 0x3b, 0x1b, 0xb6, 0xed, 0xbd, 0x4c, 0xe3, 0x81, 0x3e,
  0x9d, 0x2c, 0x65, 0x3e, 0x95, 0xd1, 0xce, 0x3b, 0xe0, 0x68, 0xd4, 0x3b,
  0x7f, 0xb8, 0x17, 0xbb, 0x76, 0xf4, 0x5a, 0xbe, 0x84, 0x13, 0x1c, 0xbe,
  0xc9, 0xfb, 0x52, 0x3d, 0xba, 0xeb, 0x7b, 0xbe, 0xa1, 0x78, 0x09, 0xbe,
  0xe7, 0xaa, 0xfc, 0xbd, 0xa8, 0x14, 0x93, 0x3e, 0x53, 0x91, 0x87, 0xbe,
  0x42, 0xa3, 0x08, 0x3b, 0x21, 0xd7, 0x95, 0xbd, 0x31, 0x9c, 0x19, 0x3d,
  0x2a, 0x66, 0x99, 0x3e, 0xb2, 0x2c, 0xf1, 0x3d, 0x23, 0x48, 0xb8, 0xbd,
  0xfc, 0xf7, 0x23, 0xbe, 0x1d, 0x64, 0x9d, 0x3c, 0xf1, 0x9b, 0xb1, 0x3d,
  0xe6, 0x55, 0xad, 0xbe, 0xc1, 0x3d, 0x66, 0xbe, 0x51, 0x84, 0xa1, 0xbe,
  0x31, 0x13, 0x0c, 0xbe, 0xa7, 0x96, 0xf9, 0xbd, 0x3a, 0xf0, 0x5b, 0x3e,
  0x41, 0x2a, 0x24, 0xbe, 0xee, 0x3f, 0x04, 0xbe, 0xff, 0x82, 0x95, 0xba,
  0xf6, 0x19, 0x94, 0x3d, 0x12, 0xd7, 0xe2, 0xbd, 0xc7, 0x42, 0xa7, 0x3c,
  0xd0, 0x19, 0x30, 0xbc, 0x49, 0x1c, 0x09, 0xbd, 0x29, 0xc0, 0x8a, 0x3c,
  0x65, 0xed, 0x99, 0x3c, 0x00, 0x65, 0x26, 0xbd, 0x12, 0x03, 0x6b, 0xbd,
  0x4b, 0xa1, 0x3a, 0xbe, 0x74, 0xbc, 0xe0, 0x3d, 0x89, 0x3b, 0x06, 0x3d,
  0x27, 0x03, 0x10, 0x3e, 0x30, 0x59, 0xd0, 0xbc, 0x3a, 0x6a, 0x8d, 0x3c,
  0x10, 0x82, 0x26, 0x3d, 0x48, 0x2a, 0x0d, 0x3d, 0x39, 0x27, 0x26, 0x3c,
  0xde, 0x89, 0x7d, 0xbc, 0x8a, 0xe6, 0x1f, 0x3e, 0x52, 0xe7, 0x10, 0xbe,
  0x3f, 0xca, 0xf9, 0xbb, 0xd2, 0xe2, 0x10, 0xbc, 0xf4, 0xff, 0x26, 0xbe,
  0x9e, 0x26, 0x01, 0x3e, 0xf6, 0x08, 0x92, 0xbd, 0xe9, 0xfc, 0x4d, 0xbe,
  0xfe, 0xcb, 0x02, 0x3d, 0x74, 0x8b, 0x71, 0xbd, 0x5a, 0x6f, 0xa1, 0x3d,
  0xce, 0xad, 0xbe, 0xbe, 0xd5, 0x7b, 0x03, 0x3e, 0xcc, 0x8e, 0x72, 0xbe,
  0xa7, 0xe9, 0x8b, 0x3e, 0x24, 0x98, 0xea, 0xbd, 0x42, 0x85, 0xb0, 0x3d,
  0x97, 0xe2, 0xe4, 0x3d, 0xad, 0x4c, 0x38, 0xbe, 0x37, 0x14, 0x58, 0xbd,
  0x2a, 0x44, 0x90, 0xbe, 0x0d, 0x30, 0xf8, 0xbc, 0x2f, 0x60, 0x46, 0x3d,
  0xc0, 0xc4, 0xb4, 0x3d, 0x8b, 0x30, 0x4d, 0x3e, 0x06, 0xbb, 0xc0, 0x3d,
  0xec, 0x1c, 0xc8, 0x3d, 0x56, 0x3f, 0xfd, 0xbc, 0xc8, 0xc5, 0x0c, 0x3d,
  0xf1, 0xe4, 0x12, 0xbe, 0x66, 0x0a, 0xd4, 0x3e, 0x9e, 0x07, 0x7a, 0xbe,
  0xb0, 0xe4, 0x06, 0xbe, 0x59, 0xec, 0xb0, 0x3d, 0x55, 0x9d, 0x73, 0xbe,
  0xef, 0x7d, 0x9e, 0xbe, 0xef, 0xae, 0xd2, 0x3d, 0xa5, 0xc9, 0xaa, 0xbe,
  0xef, 0x86, 0x2a, 0xbe, 0xc2, 0x63, 0x19, 0x3e, 0xc9, 0xe3, 0xd3, 0xbe,
  0xd3, 0x62, 0x54, 0x3c, 0x19, 0xc4, 0xd5, 0x3d, 0xba, 0xa5, 0x1b, 0x3e,
  0xb4, 0xb0, 0xef, 0x3c, 0x1b, 0xf7, 0xb2, 0xbe, 0x2d, 0x51, 0xdd, 0x3d,
  0xe6, 0x16, 0x8e, 0xbd, 0xc6, 0x56, 0x2e, 0xbd, 0x2b, 0xb7, 0x90, 0xbd,
  0xce, 0x24, 0xf4, 0xbd, 0x17, 0x92, 0xa2, 0xbe, 0xbf, 0x24, 0x81, 0xbe,
  0x2e, 0xa3, 0xd4, 0xbe, 0xfb, 0x05, 0x0e, 0xbe, 0xd3, 0x1d, 0x95, 0x3d,
  0x37, 0x90, 0x01, 0xbf, 0xd3, 0x2c, 0xab, 0x3d, 0x3c, 0x0c, 0xb9, 0x3d,
  0x8c, 0x09, 0x47, 0xbd, 0x87, 0xee, 0x24, 0xbe, 0xd9, 0x2b, 0x20, 0xbe,
  0xc7, 0xfd, 0x2f, 0xbe, 0x89, 0x38, 0x87, 0xbd, 0x75, 0x14, 0x10, 0x3c,
  0x03, 0x56, 0xc2, 0xbd, 0x5e, 0x2f, 0x2d, 0xbd, 0x34, 0x9c, 0xdc, 0xbd,
  0x62, 0x2e, 0x8c, 0x3c, 0x54, 0x77, 0x84, 0xbe, 0x8c, 0x41, 0x53, 0x3d,
  0x7c, 0x56, 0x4f, 0xbe, 0x8a, 0x40, 0xa6, 0xbe, 0xc4, 0xee, 0x8e, 0xbd,
  0x0e, 0xcf, 0x1a, 0xbe, 0xdd, 0xc2, 0xab, 0xbd, 0xb9, 0x55, 0x5b, 0x3d,
  0x74, 0x29, 0x11, 0x3d, 0xe6, 0x9d, 0x82, 0xbd, 0x59, 0x08, 0x8e, 0xbe,
  0xe5, 0xbe, 0x10, 0xbe, 0xad, 0x4e, 0x35, 0xbe, 0xad, 0xbf, 0x69, 0xbd,
  0x42, 0x9f, 0x6b, 0xbd, 0x2d, 0x6f, 0x39, 0xbe, 0x5c, 0x88, 0xc5, 0xbd,
  0x9f, 0xff, 0x1b, 0xbe, 0xd5, 0x86, 0xfa, 0xbc, 0xe7, 0x46, 0x9a, 0xbe,
  0x92, 0xa0, 0xb5, 0xbd, 0x34, 0x68, 0x1e, 0xbe, 0xc8, 0x23, 0xea, 0x3d,
  0x94, 0xbd, 0x0b, 0x3d, 0xe1, 0x69, 0x2f, 0xbe, 0x99, 0x25, 0x5a, 0xbe,
  0x71, 0x66, 0x93, 0xbc, 0x3e, 0xab, 0x9c, 0xbd, 0x67, 0x3d, 0xbf, 0xbc,
  0xfa, 0x9a, 0x8f, 0x3d, 0x60, 0x6d, 0x64, 0xbe, 0xcf, 0xb7, 0x8a, 0xbb,
  0x6a, 0x2e, 0x2d, 0xbe, 0xf4, 0x16, 0x00, 0xbd, 0xe2, 0xa6, 0x20, 0xbe,
  0x76, 0x88, 0xbd, 0xbd, 0x46, 0x8c, 0x6e, 0xbd, 0x64, 0xab, 0x31, 0xbb,
  0x50, 0xde, 0x11, 0xbd, 0xf6, 0xd8, 0xb2, 0xbb, 0xb6, 0x92, 0xd8, 0xbe,
  0x6b, 0xe6, 0x70, 0xbe, 0x24, 0x2d, 0x0f, 0xbd, 0x3c, 0xd1, 0x19, 0x3d,
  0x02, 0xf2, 0xac, 0xbd, 0x13, 0xf1, 0xc5, 0xbd, 0xf5, 0x1a, 0x88, 0x3e,
  0xa9, 0x45, 0x4f, 0xbe, 0x94, 0xa9, 0x7f, 0x3d, 0x2b, 0x6d, 0xe8, 0xbd,
  0x18, 0x13, 0x44, 0xbc, 0xb9, 0xbf, 0x9b, 0x3d, 0xda, 0xc6, 0x32, 0xbc,
  0x61, 0x3d, 0xf0, 0x3d, 0xff, 0xdd, 0xeb, 0xbe, 0x2c, 0x34, 0xc7, 0xbd,
  0x21, 0xfc, 0x80, 0xbe, 0x03, 0x9e, 0x11, 0x3e, 0x4f, 0xd9, 0x43, 0xbd,
  0xf5, 0x4b, 0x10, 0xbe, 0xbd, 0x33, 0x82, 0x3d, 0x9c, 0x62, 0xae, 0xbd,
  0x1c, 0x8f, 0x06, 0xbe, 0x65, 0xd5, 0x2b, 0xbe, 0x46, 0x18, 0x62, 0xbd,
  0x9c, 0xc2, 0x15, 0x3c, 0xb5, 0x56, 0x31, 0xbd, 0x06, 0x89, 0x87, 0x3e,
  0xca, 0xf7, 0x6d, 0x3d, 0xfe, 0x74, 0xd6, 0x3d, 0xdb, 0x28, 0x02, 0xbe,
  0xea, 0x1d, 0x27, 0x3d, 0xbf, 0xe7, 0x94, 0xbe, 0x3d, 0x2b, 0x84, 0x3e,
  0x76, 0x4d, 0x0b, 0xbe, 0x86, 0xfb, 0xaa, 0xbe, 0xf9, 0xff, 0x07, 0xbe,
  0xb5, 0x27, 0x2d, 0xbd, 0x43, 0xf8, 0xad, 0xbe, 0x73, 0x15, 0xd9, 0xbd,
  0x62, 0xf4, 0xd7, 0xbe, 0x29, 0x65, 0xd0, 0xbe, 0x6d, 0xf3, 0x36, 0x3c,
  0x6e, 0xca, 0xb3, 0xbe, 0x77, 0xc4, 0xa6, 0x3c, 0x64, 0x99, 0x22, 0xbe,
  0x36, 0x77, 0x51, 0xbd, 0xc9, 0x1d, 0x60, 0x3d, 0xde, 0x98, 0x5c, 0xbe,
  0x45, 0xb6, 0x12, 0xbe, 0xe5, 0x3c, 0x21, 0x3d, 0x1e, 0x99, 0x8d, 0xbe,
  0xc6, 0x47, 0xb1, 0x3d, 0x95, 0x98, 0xeb, 0x3d, 0x1c, 0x4b, 0xb9, 0xbe,
  0xfe, 0x9b, 0xa0, 0xbe, 0xd2, 0xc9, 0x23, 0xbf, 0x5b, 0x4e, 0xac, 0xbe,
  0x5f, 0x06, 0x43, 0x3e, 0xf8, 0x89, 0x22, 0xbf, 0x3d, 0xa2, 0x57, 0x3d,
  0x94, 0x13, 0xf3, 0xbe, 0xcb, 0xdf, 0xb0, 0x3d, 0x7c, 0x4d, 0x27, 0x3d,
  0xf1, 0x33, 0xcc, 0xbd, 0xea, 0x51, 0x4f, 0xbe, 0x76, 0x22, 0xdb, 0x3d,
  0xb2, 0x5f, 0x4c, 0xbe, 0x35, 0x0b, 0xd8, 0xbd, 0x3c, 0x15, 0xef, 0xbd,
  0x04, 0x47, 0xb9, 0xbe, 0x3c, 0x8f, 0x6a, 0xbe, 0x41, 0xb3, 0x1b, 0x3d,
  0xa7, 0x27, 0x9f, 0xbd, 0xce, 0xc0, 0x0e, 0x3e, 0x47, 0x46, 0x06, 0xbf,
  0xb2, 0x37, 0x20, 0xbe, 0x7c, 0x7a, 0xb2, 0xbd, 0x8e, 0x5a, 0x22, 0xbe,
  0x87, 0xac, 0xd9, 0xbd, 0xec, 0xf7, 0xcc, 0xbd, 0xdd, 0x38, 0x3d, 0xbe,
  0x3f, 0x11, 0x38, 0x3a, 0xbd, 0xba, 0xba, 0x3c, 0x9e, 0xa6, 0x0a, 0xbe,
  0xd6, 0x87, 0x8e, 0xbd, 0xc9, 0xe2, 0x0a, 0x3e, 0xf4, 0x9c, 0x4c, 0xbe,
  0x10, 0xa5, 0x8d, 0x3d, 0x77, 0x9f, 0xbe, 0x3b, 0x3b, 0x0e, 0xb0, 0x3d,
  0x15, 0x8b, 0xa2, 0x3b, 0x7b, 0x58, 0x8f, 0xbe, 0x22, 0x98, 0x6e, 0x3d,
  0x63, 0x78, 0x13, 0xbd, 0x94, 0x31, 0xef, 0x3d, 0xcf, 0xbb, 0x15, 0xbe,
  0x6e, 0x70, 0x97, 0x3e, 0x37, 0xe1, 0xd3, 0xbd, 0xd0, 0x87, 0x9f, 0xbb,
  0x31, 0xc4, 0x42, 0xbd, 0x2f, 0xce, 0x2b, 0xbd, 0xd7, 0x8a, 0x8f, 0xbc,
  0x5c, 0xde, 0x12, 0xbd, 0xa4, 0x2d, 0x0c, 0x3e, 0x61, 0x42, 0x75, 0x3d,
  0x1f, 0x61, 0xb1, 0x3d, 0xfe, 0x91, 0x1e, 0x3d, 0xb6, 0x77, 0x91, 0xbe,
  0x75, 0xf4, 0x0d, 0x3d, 0x11, 0x3b, 0xcf, 0xbc, 0x7f, 0xb3, 0x30, 0x3c,
  0xf0, 0xf4, 0x64, 0x3d, 0x50, 0x6b, 0x42, 0x3e, 0xcb, 0x69, 0x86, 0xbd,
  0x27, 0xd9, 0xc5, 0x3d, 0xc8, 0x6d, 0x85, 0xbe, 0x5a, 0xce, 0xbb, 0xbe,
  0xe5, 0x28, 0xd7, 0xbd, 0x8b, 0x37, 0x29, 0xbe, 0x0d, 0x4f, 0x11, 0xbd,
  0xb1, 0x18, 0x31, 0xbd, 0x26, 0x39, 0x44, 0x3e, 0x58, 0x07, 0x93, 0xbe,
  0x20, 0x62, 0x6c, 0x3e, 0xd5, 0x01, 0x01, 0xbe, 0x02, 0x07, 0xcd, 0x3e,
  0x49, 0xc3, 0xcf, 0xbe, 0x21, 0x1b, 0x28, 0xbe, 0xe1, 0xb1, 0x83, 0xbd,
  0x59, 0x90, 0xe4, 0xbd, 0x25, 0xf1, 0x7e, 0x3e, 0x2e, 0xca, 0xf8, 0xbd,
  0x6c, 0xb9, 0x65, 0xbe, 0x55, 0xfd, 0x87, 0xbb, 0x36, 0x2b, 0x65, 0x3d,
  0xa5, 0x30, 0x23, 0xbe, 0x70, 0xa5, 0xd5, 0x3c, 0x11, 0x8e, 0x9d, 0x3c,
  0x42, 0x0b, 0xef, 0xbd, 0x71, 0xb9, 0x75, 0x3c, 0xff, 0xb0, 0xa9, 0xbc,
  0xe8, 0xd9, 0x6f, 0x3e, 0xd7, 0x9e, 0xb9, 0xbe, 0x5f, 0x09, 0xdd, 0xbe,
  0xb6, 0xf9, 0x89, 0xbd, 0x8f, 0x7c, 0x53, 0xbc, 0xe2, 0xe5, 0xe2, 0x3d,
  0xf9, 0x4c, 0x3c, 0xbe, 0x0e, 0x90, 0x4c, 0xbe, 0x5b, 0xd4, 0xe4, 0x3d,
  0xe3, 0x2e, 0x89, 0xbd, 0xdf, 0x54, 0x1a, 0xbe, 0xc3, 0x1b, 0x0a, 0x3d,
  0x9c, 0x5f, 0x8d, 0x3d, 0x44, 0x79, 0x4b, 0xbe, 0xc9, 0x36, 0x84, 0xbc,
  0x97, 0x5e, 0xab, 0x3d, 0xd0, 0xe4, 0xee, 0x3c, 0xef, 0xea, 0x25, 0x3e,
  0x9f, 0x48, 0x77, 0xbe, 0xe9, 0x43, 0x16, 0x3e, 0x50, 0x15, 0xc6, 0xbd,
  0x82, 0x54, 0xb4, 0x3d, 0xec, 0x62, 0xa5, 0xbe, 0x00, 0xca, 0x2b, 0xbe,
  0xeb, 0x43, 0xba, 0x3d, 0xd1, 0x07, 0xdb, 0xbc, 0x3a, 0x76, 0x87, 0xbe,
  0xc6, 0x66, 0x84, 0x3d, 0xd2, 0xaa, 0x55, 0x3e, 0xe4, 0xd0, 0xc1, 0xbd,
  0xce, 0xb1, 0xe6, 0x3e, 0x27, 0x71, 0xc3, 0x3d, 0x25, 0x4c, 0x7e, 0xbe,
  0x56, 0x85, 0xaf, 0xbe, 0x3f, 0xea, 0x04, 0xbe, 0xc5, 0xa3, 0x81, 0xbd,
  0x13, 0x8d, 0x7c, 0xbe, 0x06, 0x7e, 0x37, 0x3e, 0x2e, 0xd8, 0x74, 0xbe,
  0xb9, 0x02, 0xcc, 0xbd, 0x10, 0x56, 0xd9, 0xbb, 0x63, 0x6c, 0x38, 0x3d,
  0xad, 0xfe, 0xf5, 0xbd, 0x58, 0xa8, 0x19, 0x3e, 0x15, 0xe7, 0xda, 0x3d,
  0xe3, 0x8a, 0x5a, 0xbd, 0x5d, 0xf2, 0x5a, 0x3e, 0x74, 0x85, 0xc5, 0x3d,
  0xb6, 0xc6, 0x7c, 0x3e, 0xc6, 0xcf, 0x9f, 0xbe, 0xca, 0x02, 0xe5, 0xbe,
  0xf0, 0x70, 0xd8, 0x3b, 0x58, 0x17, 0x3a, 0xbd, 0x29, 0x49, 0xab, 0x3d,
  0x2c, 0xcc, 0xb5, 0xbe, 0xe7, 0x00, 0x91, 0xbd, 0xfb, 0xe7, 0x1e, 0xbd,
  0xf1, 0xa7, 0x8b, 0xbd, 0x97, 0xb4, 0x3c, 0xbf, 0xf1, 0xb7, 0x20, 0x3e,
  0xf6, 0x3a, 0xac, 0x3d, 0x34, 0x2b, 0xbb, 0xbe, 0xa3, 0x28, 0xde, 0x3e,
  0x70, 0x7e, 0x17, 0xbe, 0x18, 0xc2, 0xf4, 0xbc, 0xe4, 0x1e, 0x8f, 0xbe,
  0x7a, 0x25, 0x95, 0xbe, 0x21, 0xb1, 0x24, 0xbd, 0xa6, 0x21, 0x32, 0xbe,
  0x36, 0x13, 0xb6, 0x3d, 0xed, 0x77, 0x94, 0x3c, 0x49, 0x20, 0x03, 0xbe,
  0x2f, 0x5f, 0x86, 0xbd, 0xf8, 0xde, 0x00, 0x3d, 0xe7, 0x4b, 0xd0, 0xbe,
  0x3e, 0xf9, 0xcc, 0x3c, 0x58, 0x85, 0xa1, 0x3e, 0xff, 0xef, 0xe7, 0xbd,
  0xd7, 0xe9, 0x21, 0x3e, 0xf6, 0xec, 0x2e, 0x3d, 0x9e, 0xb1, 0x43, 0x3d,
  0x9d, 0xb7, 0xd3, 0x3d, 0x4c, 0xd9, 0x95, 0x3d, 0x02, 0x9c, 0xce, 0x3c,
  0xf1, 0x96, 0xa5, 0xbd, 0xff, 0xb6, 0x96, 0x3d, 0x9a, 0x1b, 0xe3, 0xbe,
  0x41, 0x5a, 0x1c, 0xbe, 0x7d, 0x4b, 0x21, 0x3d, 0x97, 0xc8, 0x81, 0xbe,
  0xf6, 0x18, 0xac, 0x3d, 0x76, 0x41, 0x5f, 0xbd, 0x7e, 0x13, 0xc6, 0x3d,
  0x68, 0x1f, 0x4b, 0xbd, 0x7b, 0x43, 0x83, 0x3e, 0xd5, 0xf2, 0x81, 0xbd,
  0x13, 0x36, 0xc0, 0x3d, 0x6b, 0x22, 0xd5, 0xbe, 0xb8, 0xff, 0xd4, 0xbd,
  0xc5, 0x8d, 0x5b, 0x3d, 0x35, 0x7e, 0x61, 0xbd, 0xa2, 0x23, 0x24, 0x3e,
  0x6a, 0x46, 0xa8, 0xbe, 0xa7, 0xe9, 0xa3, 0xbe, 0x4d, 0x2f, 0xed, 0x3c,
  0x0d, 0xe9, 0x22, 0xbe, 0x2d, 0xbd, 0x04, 0xbe, 0x70, 0xb4, 0x0b, 0x3e,
  0x0a, 0x16, 0x94, 0xbd, 0x9e, 0x68, 0x6f, 0xbd, 0x90, 0xc7, 0xb6, 0xbd,
  0x56, 0x83, 0x60, 0xbc, 0x8a, 0xf6, 0x7c, 0x3d, 0x0b, 0x7e, 0x39, 0xbe,
  0x82, 0xdc, 0xd6, 0xbe, 0x7c, 0x9d, 0xa7, 0x3d, 0xd3, 0x8f, 0x28, 0x3d,
  0x9b, 0x54, 0xba, 0x3d, 0x4a, 0x1d, 0x40, 0xbe, 0x26, 0x2f, 0x77, 0xbe,
  0xeb, 0x16, 0x9f, 0x3d, 0x42, 0x1e, 0x30, 0xbe, 0x54, 0xc5, 0x95, 0xbd,
  0x48, 0x8d, 0xed, 0x3d, 0x30, 0x3d, 0x8b, 0xbd, 0xa4, 0x77, 0x46, 0xbe,
  0x4e, 0xa7, 0xa5, 0x3e, 0x8a, 0xb7, 0xc9, 0xbd, 0x2a, 0x86, 0xd3, 0xbc,
  0xd5, 0x79, 0xa8, 0xbe, 0x35, 0x4c, 0xa7, 0xbe, 0x0e, 0x7f, 0xea, 0x3c,
  0x61, 0xc3, 0x66, 0xbb, 0x97, 0x3c, 0xc5, 0xba, 0x58, 0x01, 0xae, 0xbe,
  0xdb, 0x17, 0x87, 0xbd, 0xa9, 0x08, 0x8a, 0xbb, 0xc9, 0x1d, 0xef, 0xbd,
  0xe8, 0xff, 0x45, 0xbd, 0x2c, 0x3d, 0xd7, 0x3c, 0x31, 0x33, 0xed, 0xbd,
  0x0e, 0xe7, 0xc0, 0xbd, 0x77, 0xc1, 0xcf, 0x3c, 0x84, 0x3c, 0x0e, 0xbd,
  0xa9, 0xb3, 0xc8, 0x3d, 0x20, 0x69, 0x57, 0x3d, 0x43, 0x7f, 0x90, 0xbe,
  0xf2, 0x6b, 0x7d, 0x3b, 0x36, 0x85, 0xa2, 0xbd, 0xac, 0x6f, 0xd2, 0x3d,
  0x3b, 0xd2, 0x8b, 0xbe, 0xc4, 0xd5, 0x6f, 0xbe, 0x6e, 0x97, 0x03, 0x3e,
  0xca, 0xe8, 0x5e, 0xbd, 0xb4, 0x54, 0x0b, 0x3d, 0xd6, 0xff, 0x0e, 0x3d,
  0x98, 0x3c, 0x30, 0x3e, 0x3b, 0xfb, 0x2f, 0xbd, 0xcc, 0xab, 0x95, 0x3e,
  0x5b, 0xd2, 0x1b, 0xbb, 0x9c, 0x51, 0x21, 0xbd, 0x32, 0x98, 0x6e, 0xbe,
  0x21, 0x79, 0xc5, 0xbe, 0x16, 0x85, 0xe6, 0x3d, 0x66, 0xd2, 0xd9, 0xbd,
  0xeb, 0x2e, 0x09, 0x3e, 0x2c, 0x3f, 0x7c, 0xbe, 0x76, 0x02, 0xbb, 0xbe,
  0x43, 0x6e, 0xf7, 0x3d, 0xad, 0xd6, 0xaa, 0xbe, 0x47, 0x9d, 0x3b, 0xbc,
  0x44, 0x38, 0x21, 0x3d, 0x76, 0x49, 0xd7, 0x3d, 0xf8, 0xd9, 0xe1, 0xbc,
  0x96, 0xe7, 0x5b, 0x3e, 0x9c, 0x90, 0x09, 0xbe, 0x91, 0x9b, 0xdc, 0x3c,
  0x14, 0x23, 0x6d, 0xbe, 0x26, 0xb4, 0xe6, 0xbe, 0x07, 0x8b, 0xa1, 0x3e,
  0x26, 0x32, 0x1d, 0x3c, 0x8a, 0xe0, 0xbb, 0x3d, 0xce, 0x95, 0xe1, 0xbd,
  0xc4, 0x72, 0xfc, 0xbd, 0x24, 0x70, 0x00, 0x3d, 0x51, 0x6d, 0x4a, 0xbd,
  0xbe, 0x3f, 0x9e, 0x3d, 0xda, 0x42, 0xd1, 0x3b, 0xcd, 0xec, 0xbb, 0x3d,
  0xdc, 0xf1, 0x87, 0x3c, 0x9e, 0xb6, 0x2c, 0x3e, 0xf3, 0xfa, 0x9f, 0x3d,
  0x09, 0xa5, 0xc4, 0x3c, 0x38, 0xe5, 0x11, 0x3d, 0x24, 0x8a, 0xaa, 0xbe,
  0x23, 0x50, 0x97, 0x3c, 0x56, 0xfd, 0x39, 0x3d, 0x2b, 0x86, 0xa4, 0xbd,
  0x95, 0xd7, 0x1f, 0xbe, 0xe5, 0xe0, 0xcc, 0x3d, 0xbc, 0xa1, 0x85, 0x3d,
  0x14, 0x5b, 0xc2, 0xbe, 0x90, 0xeb, 0xa1, 0xbc, 0x9c, 0xc1, 0x5d, 0xbe,
  0x1b, 0xe7, 0xcf, 0xbc, 0x0a, 0xde, 0x3f, 0xbe, 0x96, 0x01, 0xf5, 0xbc,
  0x95, 0xe6, 0xd3, 0xbd, 0x31, 0x6b, 0xb6, 0xbd, 0xce, 0xc0, 0xf9, 0x3d,
  0xe7, 0xc2, 0x5d, 0x3e, 0x24, 0x43, 0x3a, 0xbe, 0xb1, 0x24, 0x29, 0x3e,
  0x24, 0x79, 0xa5, 0xbc, 0x0f, 0xcf, 0xa7, 0x3c, 0x92, 0x3e, 0x29, 0x3e,
  0x5b, 0x9a, 0x85, 0x3e, 0x4f, 0xfa, 0xfb, 0x3d, 0x47, 0xb1, 0xdb, 0xbd,
  0xa4, 0x84, 0xba, 0xbe, 0x19, 0x35, 0x87, 0x3d, 0x99, 0x80, 0xc8, 0xbd,
  0xd3, 0x2e, 0xed, 0x3d, 0x42, 0x3b, 0x84, 0xbe, 0x18, 0x2d, 0x6f, 0x3d,
  0x75, 0xf3, 0x37, 0x3d, 0x65, 0x71, 0x1b, 0x3d, 0xa4, 0x13, 0xff, 0x3c,
  0xfa, 0x7f, 0x30, 0x3e, 0x3e, 0xd2, 0x64, 0x3d, 0x03, 0xa0, 0x6f, 0x3e,
  0xc2, 0xe4, 0x70, 0x3d, 0x08, 0xe8, 0xe1, 0xbd, 0x42, 0xe0, 0x37, 0x3c,
  0xe8, 0x85, 0x2c, 0xbc, 0xa0, 0x50, 0x7f, 0xbe, 0x0c, 0x94, 0x74, 0xbd,
  0xb5, 0x8c, 0x8f, 0xbe, 0x88, 0x6e, 0xd5, 0x3d, 0x77, 0xe5, 0x9f, 0xbc,
  0x17, 0xc1, 0xb7, 0x3d, 0xe2, 0xe9, 0xd9, 0xbc, 0x8a, 0xb0, 0x77, 0x3d,
  0xa3, 0x08, 0x14, 0x3e, 0xb8, 0xff, 0xed, 0xbb, 0x76, 0xa0, 0xc5, 0xba,
  0xab, 0x2f, 0x3c, 0xbc, 0xd9, 0xf2, 0x80, 0xbb, 0x66, 0x33, 0x1d, 0xbe,
  0x96, 0xb1, 0x46, 0x3c, 0x0e, 0xdf, 0x14, 0x3d, 0x22, 0xfa, 0xb6, 0xbe,
  0x61, 0xe6, 0x18, 0x3e, 0xd0, 0x5e, 0xb4, 0xbd, 0x21, 0x9d, 0xdc, 0x3c,
  0x69, 0xda, 0x1d, 0xbd, 0x2a, 0xd8, 0x1f, 0xbe, 0x01, 0xc1, 0xd5, 0x3d,
  0xac, 0xbe, 0x84, 0x3e, 0x32, 0x28, 0x28, 0xbd, 0x5c, 0x80, 0xe1, 0x3d,
  0x12, 0xcb, 0x1e, 0x3d, 0x7b, 0x88, 0x8f, 0x3d, 0x38, 0x68, 0xa2, 0x3d,
  0x12, 0xd4, 0xff, 0x3d, 0xbf, 0x72, 0x75, 0x3c, 0x60, 0xd6, 0xcc, 0xbd,
  0xf4, 0x27, 0xc0, 0xbe, 0x58, 0xae, 0x1b, 0xbe, 0xd2, 0x73, 0x33, 0xbe,
  0x03, 0x3d, 0xfa, 0x3d, 0x63, 0xcc, 0x99, 0xbe, 0xcf, 0x2a, 0x8d, 0x3a,
  0x4e, 0x51, 0x88, 0x3e, 0xbf, 0xb6, 0xea, 0xbd, 0x28, 0x38, 0x1f, 0xbe,
  0x91, 0xd6, 0x94, 0x3d, 0xdf, 0x0b, 0x79, 0x3c, 0x80, 0xde, 0x2c, 0x3e,
  0x3f, 0x35, 0xf0, 0x3d, 0x5e, 0x01, 0x2d, 0x3e, 0x8c, 0xdd, 0x87, 0x3d,
  0x17, 0xf2, 0x07, 0xbe, 0x5e, 0x61, 0xae, 0xbe, 0xc0, 0xee, 0xbe, 0xbd,
  0x83, 0xa4, 0x21, 0xbe, 0x12, 0x6e, 0x88, 0xbd, 0xa2, 0xd7, 0xab, 0xbe,
  0x8d, 0x7b, 0xcb, 0xbd, 0x37, 0x4a, 0x3b, 0x3c, 0xf2, 0x08, 0x29, 0xbe,
  0x25, 0xe0, 0x7a, 0xbe, 0x41, 0xda, 0xfa, 0xbe, 0xad, 0xa6, 0x03, 0x3e,
  0x5b, 0x92, 0x39, 0x3c, 0x93, 0x00, 0x6a, 0xbe, 0x0c, 0x33, 0x78, 0xbe,
  0xda, 0xa0, 0xf2, 0x3d, 0x1b, 0x8f, 0xd6, 0xbd, 0x83, 0x5f, 0x9f, 0xbe,
  0x36, 0x89, 0x4b, 0x3e, 0x44, 0x8e, 0x97, 0xbe, 0xd7, 0x18, 0x6c, 0x3d,
  0xf3, 0xfc, 0xb2, 0xbc, 0xe4, 0x18, 0xaa, 0x3d, 0x35, 0x17, 0xda, 0xbd,
  0x3c, 0x31, 0x88, 0xbd, 0x1a, 0x7d, 0x07, 0xbe, 0x86, 0x85, 0xb3, 0x3d,
  0x9b, 0xf8, 0xae, 0xbd, 0x65, 0xd9, 0x65, 0xbe, 0x9e, 0x9d, 0xa1, 0x3d,
  0x00, 0x98, 0x21, 0xbd, 0x18, 0x82, 0x8b, 0xbe, 0xb0, 0x26, 0xa2, 0xbc,
  0xfe, 0x89, 0x1e, 0xbe, 0xd6, 0xf9, 0x8f, 0x3e, 0x5b, 0xb6, 0x79, 0xbd,
  0xad, 0xf6, 0xb1, 0xbd, 0x40, 0x34, 0x18, 0xbe, 0x50, 0x0c, 0x68, 0x3e,
  0x1e, 0xc3, 0x7a, 0x3e, 0x77, 0x11, 0x27, 0x3e, 0xbf, 0xa3, 0xb9, 0xbd,
  0x3b, 0xa8, 0x73, 0xbc, 0xb3, 0x1d, 0x68, 0x3c, 0x74, 0x1b, 0x10, 0xbc,
  0x1e, 0x86, 0x20, 0x3e, 0x21, 0x35, 0x07, 0x3e, 0x57, 0x96, 0xbd, 0x3d,
  0xf3, 0xf2, 0x37, 0xbe, 0x88, 0x55, 0x56, 0xbe, 0x87, 0x43, 0x02, 0x3e,
  0x91, 0x6f, 0x42, 0x3e, 0xe3, 0x6e, 0xad, 0x3e, 0x32, 0x32, 0x49, 0xbe,
  0x24, 0x13, 0x26, 0xbe, 0x4f, 0x8c, 0xa2, 0x3d, 0x84, 0xee, 0x77, 0xbe,
  0x13, 0x4e, 0x03, 0xbe, 0xd7, 0x4e, 0x0c, 0xbe, 0x45, 0xbd, 0xb2, 0x3d,
  0x0e, 0x40, 0x8c, 0x3d, 0x24, 0x8a, 0x80, 0xbd, 0x49, 0x52, 0x11, 0xbe,
  0xa8, 0xf0, 0x99, 0xbd, 0x70, 0xea, 0x89, 0xbe, 0x18, 0xbd, 0x71, 0xbe,
  0xe4, 0xf3, 0x93, 0x3d, 0xaf, 0xa1, 0xd6, 0xbe, 0x70, 0x96, 0x03, 0x3e,
  0x90, 0x2d, 0x8b, 0xbe, 0x08, 0xba, 0x09, 0xbe, 0x16, 0xc5, 0xc3, 0x3d,
  0xea, 0xff, 0x74, 0xbe, 0xf6, 0xfc, 0xec, 0x3d, 0x5d, 0x85, 0x0a, 0x3e,
  0xa4, 0xf3, 0x80, 0xbd, 0xa6, 0xce, 0x86, 0x3d, 0x2d, 0x62, 0x34, 0xbe,
  0x5f, 0x55, 0xcb, 0xbd, 0xbc, 0x5f, 0x05, 0xbe, 0x84, 0x44, 0x19, 0x3d,
  0xbe, 0x71, 0x15, 0xbe, 0xc7, 0x2f, 0xde, 0x3d, 0x6b, 0x7e, 0xdc, 0xbe,
  0x7f, 0xa0, 0xe6, 0x3e, 0xae, 0xd0, 0x18, 0xbe, 0xc7, 0xff, 0x62, 0xbb,
  0xf6, 0x93, 0x7a, 0x3d, 0x30, 0xfe, 0x5d, 0x3e, 0x93, 0x77, 0x11, 0xbd,
  0x48, 0xb3, 0x3f, 0x3e, 0x4b, 0xae, 0x2d, 0xbc, 0x74, 0x0e, 0xd7, 0xbd,
  0xb6, 0x4d, 0x9e, 0x3d, 0x2e, 0xd0, 0x6b, 0x3d, 0xd5, 0x06, 0xb9, 0xbe,
  0xcb, 0x22, 0x0d, 0x3d, 0x3a, 0xbe, 0x06, 0xbe, 0x9a, 0xf7, 0x09, 0x3d,
  0x25, 0x93, 0xd5, 0xbd, 0x81, 0xb7, 0x89, 0x3e, 0x6e, 0xae, 0xce, 0xbd,
  0xaf, 0x65, 0x11, 0x3d, 0x92, 0xbf, 0x0b, 0xbe, 0x9d, 0xa7, 0x52, 0x3e,
  0x76, 0x0e, 0x87, 0xbe, 0xb8, 0x9a, 0x2c, 0x3e, 0x5e, 0xfe, 0xeb, 0xbd,
  0x2b, 0x47, 0x78, 0xbd, 0xb0, 0x42, 0x2b, 0x3e, 0x93, 0x83, 0xcb, 0x3d,
  0x4d, 0x77, 0xc2, 0xbe, 0x12, 0x13, 0x27, 0xbe, 0x0d, 0x8a, 0x25, 0xbe,
  0x91, 0x88, 0xe9, 0xbd, 0x84, 0x8d, 0xcf, 0xbd, 0x0b, 0x96, 0x4b, 0x3e,
  0x85, 0xeb, 0xb6, 0xbe, 0x01, 0x3a, 0x27, 0xbe, 0x53, 0xc8, 0x99, 0xbd,
  0xac, 0x8a, 0x8d, 0x3e, 0xdd, 0x51, 0x5b, 0xbe, 0x64, 0x1f, 0xdf, 0xbb,
  0x3d, 0x73, 0x95, 0xbc, 0x44, 0xfa, 0x36, 0xbd, 0x33, 0x70, 0x86, 0x3d,
  0xbb, 0x3c, 0x52, 0x3a, 0x75, 0x1c, 0x20, 0xbe, 0x80, 0x2b, 0x24, 0x3d,
  0x1c, 0x02, 0x41, 0xbe, 0x83, 0x16, 0xa9, 0xbc, 0x3c, 0x2a, 0xb0, 0xbd,
  0x8a, 0x48, 0x7b, 0xbd, 0xd5, 0x65, 0x2c, 0xbe, 0x23, 0x9c, 0xf1, 0xbd,
  0xa3, 0x63, 0x65, 0xbe, 0x43, 0xc1, 0x91, 0x3e, 0x70, 0x03, 0xc2, 0x3b,
  0xd7, 0x43, 0x2c, 0xbe, 0x95, 0xe8, 0x24, 0xbd, 0xf5, 0x47, 0xad, 0xbd,
  0xde, 0xe9, 0x9a, 0xbe, 0x3b, 0x08, 0x02, 0xbe, 0xa4, 0xad, 0xa2, 0xbd,
  0x55, 0x01, 0xd8, 0x3d, 0xc6, 0x4e, 0x82, 0xbe, 0xbb, 0xfd, 0x28, 0x3e,
  0xa6, 0xa6, 0x84, 0xbe, 0x82, 0x64, 0xdd, 0x3e, 0xb7, 0x2c, 0xaa, 0xbe,
  0xf6, 0xde, 0x82, 0x3e, 0x87, 0x3d, 0x26, 0x3e, 0xe2, 0xc3, 0xec, 0x3c,
  0x20, 0x04, 0xc9, 0x3d, 0xf1, 0x2d, 0x20, 0xbd, 0x02, 0xb7, 0x88, 0xbe,
  0x14, 0xd5, 0x3e, 0xbe, 0x84, 0xcf, 0x44, 0xbe, 0xea, 0x69, 0xe4, 0xbe,
  0x9a, 0x57, 0x49, 0xbd, 0x0c, 0xa0, 0x1c, 0x3d, 0xf5, 0x7e, 0x82, 0xbe,
  0x41, 0xc0, 0x1b, 0xbe, 0x11, 0x31, 0x93, 0xbe, 0x6e, 0x3a, 0x03, 0xbd,
  0x34, 0x23, 0xb9, 0xbe, 0x18, 0x90, 0x6a, 0xbe, 0x43, 0xd4, 0x1e, 0x3e,
  0xbf, 0x0f, 0x39, 0xbd, 0xfb, 0x30, 0x2e, 0x3e, 0x69, 0x90, 0xf7, 0xbc,
  0xd6, 0x61, 0x4e, 0xbe, 0x00, 0x77, 0xd7, 0x3d, 0x8c, 0x60, 0x3d, 0xbe,
  0xbb, 0x83, 0x95, 0xbd, 0x9f, 0x38, 0x80, 0xbd, 0xcf, 0x2c, 0x96, 0x3d,
  0x68, 0xdc, 0xad, 0xbe, 0x7f, 0x75, 0x3a, 0x3d, 0xd3, 0x47, 0x99, 0xbe,
  0x3d, 0xed, 0x8e, 0x3d, 0x19, 0x46, 0x1d, 0xbe, 0x02, 0x40, 0xb3, 0xbe,
  0x5f, 0xbf, 0xd7, 0x3c, 0x05, 0x05, 0x9e, 0xbe, 0x1e, 0x96, 0xa8, 0x3e,
  0x77, 0x7f, 0x3e, 0x3e, 0x37, 0x5a, 0xb6, 0xbc, 0xcf, 0x39, 0x86, 0xbc,
  0xb8, 0xf6, 0x55, 0xbd, 0x10, 0x08, 0x98, 0xbc, 0x9b, 0xd0, 0x88, 0x3d,
  0x0b, 0xda, 0x77, 0xbc, 0x8a, 0x7a, 0x8b, 0xbe, 0x3d, 0xb5, 0x63, 0xbe,
  0x1c, 0x86, 0x3d, 0xbe, 0x9c, 0xa7, 0x8a, 0x3e, 0x7a, 0x1a, 0xae, 0xbd,
  0x1d, 0xf4, 0x46, 0xbe, 0x23, 0x14, 0x5b, 0x3e, 0x60, 0xd5, 0xd2, 0xbe,
  0x8e, 0x6f, 0x4d, 0x3e, 0xfd, 0x89, 0x71, 0xbe, 0x4d, 0xbc, 0x45, 0x3e,
  0xa7, 0x29, 0xc9, 0x3d, 0x57, 0x0f, 0x86, 0xbe, 0x79, 0x69, 0x72, 0x3d,
  0xc1, 0x3f, 0xcf, 0xbd, 0xe1, 0x7b, 0x02, 0x3e, 0xba, 0xfa, 0xe4, 0xbd,
  0x7e, 0x59, 0x7a, 0x3d, 0xb8, 0x11, 0x2e, 0xbe, 0x9b, 0xef, 0x98, 0x3e,
  0x9e, 0x85, 0x00, 0xbe, 0xee, 0xa5, 0xfd, 0xbd, 0xa8, 0xa3, 0x19, 0x3e,
  0x90, 0xb8, 0xaa, 0x3d, 0x90, 0xaf, 0x9c, 0x3e, 0xc1, 0x50, 0x68, 0xbe,
  0xb2, 0xfe, 0x78, 0xbc, 0x5c, 0x8c, 0xb6, 0xbd, 0xe1, 0x69, 0x75, 0xbe,
  0xb6, 0xf0, 0xb4, 0xbe, 0xc9, 0x03, 0xb6, 0x3d, 0xad, 0x98, 0x7d, 0xbd,
  0xf2, 0xd5, 0x02, 0xbe, 0x78, 0x0f, 0xf1, 0x3d, 0xbe, 0xb5, 0x7c, 0xbd,
  0x5f, 0x58, 0x82, 0x3e, 0x32, 0xf3, 0x78, 0xbe, 0x5e, 0xbd, 0x82, 0xbe,
  0x02, 0xa0, 0xb6, 0x3e, 0x06, 0xc2, 0x32, 0xbe, 0x54, 0x05, 0x53, 0x3e,
  0xcb, 0x3a, 0x3c, 0xbe, 0xac, 0x16, 0x02, 0x3e, 0x14, 0xbe, 0xaa, 0xbd,
  0x66, 0xfa, 0x61, 0xbe, 0x23, 0x7d, 0x46, 0xbe, 0x5b, 0x42, 0x88, 0x3d,
  0x78, 0x31, 0x0d, 0xbe, 0x46, 0xe0, 0xc3, 0xbd, 0xef, 0xeb, 0x95, 0x3e,
  0x55, 0x2a, 0xe8, 0x3c, 0xda, 0xaa, 0xc6, 0x3e, 0x5f, 0x1c, 0x33, 0x3c,
  0x2e, 0x07, 0x25, 0x3d, 0x77, 0x0f, 0x86, 0x3d, 0xbd, 0x76, 0xa8, 0xbe,
  0x15, 0x52, 0x50, 0xbd, 0x62, 0xfd, 0xff, 0xff, 0x10, 0x00, 0x00, 0x00,
  0x07, 0x00, 0x00, 0x00, 0x14, 0x00, 0x00, 0x00, 0x2c, 0x00, 0x00, 0x00,
  0x02, 0x00, 0x00, 0x00, 0x10, 0x00, 0x00, 0x00, 0x70, 0x00, 0x00, 0x00,
  0x17, 0x00, 0x00, 0x00, 0x73, 0x65, 0x71, 0x75, 0x65, 0x6e, 0x74, 0x69,
  0x61, 0x6c, 0x2f, 0x64, 0x65, 0x6e, 0x73, 0x65, 0x2f, 0x4d, 0x61, 0x74,
  0x4d, 0x75, 0x6c, 0x00, 0xcc, 0xfc, 0xff, 0xff, 0xd6, 0xfd, 0xff, 0xff,
  0x04, 0x00, 0x00, 0x00, 0x08, 0x00, 0x00, 0x00, 0xff, 0xff, 0xff, 0xff,
  0x70, 0x00, 0x00, 0x00, 0x00, 0x00, 0x0e, 0x00, 0x18, 0x00, 0x08, 0x00,
  0x07, 0x00, 0x0c, 0x00, 0x10, 0x00, 0x14, 0x00, 0x0e, 0x00, 0x00, 0x00,
  0x00, 0x00, 0x00, 0x02, 0x10, 0x00, 0x00, 0x00, 0x06, 0x00, 0x00, 0x00,
  0x10, 0x00, 0x00, 0x00, 0x2c, 0x00, 0x00, 0x00, 0x01, 0x00, 0x00, 0x00,
  0x02, 0x00, 0x00, 0x00, 0x18, 0x00, 0x00, 0x00, 0x73, 0x65, 0x71, 0x75,
  0x65, 0x6e, 0x74, 0x69, 0x61, 0x6c, 0x2f, 0x66, 0x6c, 0x61, 0x74, 0x74,
  0x65, 0x6e, 0x2f, 0x43, 0x6f, 0x6e, 0x73, 0x74, 0x00, 0x00, 0x00, 0x00,
  0x34, 0xfd, 0xff, 0xff, 0x3e, 0xfe, 0xff, 0xff, 0x04, 0x00, 0x00, 0x00,
  0x10, 0x00, 0x00, 0x00, 0x07, 0x10, 0x46, 0xbf, 0x51, 0xab, 0x5e, 0xc0,
  0x7a, 0x0f, 0xed, 0xbe, 0xfd, 0x14, 0x05, 0x40, 0x26, 0xfe, 0xff, 0xff,
  0x10, 0x00, 0x00, 0x00, 0x05, 0x00, 0x00, 0x00, 0x10, 0x00, 0x00, 0x00,
  0x44, 0x00, 0x00, 0x00, 0x01, 0x00, 0x00, 0x00, 0x04, 0x00, 0x00, 0x00,
  0x32, 0x00, 0x00, 0x00, 0x73, 0x65, 0x71, 0x75, 0x65, 0x6e, 0x74, 0x69,
  0x61, 0x6c, 0x2f, 0x64, 0x65, 0x6e, 0x73, 0x65, 0x5f, 0x31, 0x2f, 0x42,
  0x69, 0x61, 0x73, 0x41, 0x64, 0x64, 0x2f, 0x52, 0x65, 0x61, 0x64, 0x56,
  0x61, 0x72, 0x69, 0x61, 0x62, 0x6c, 0x65, 0x4f, 0x70, 0x2f, 0x72, 0x65,
  0x73, 0x6f, 0x75, 0x72, 0x63, 0x65, 0x00, 0x00, 0xa8, 0xfd, 0xff, 0xff,
  0xb2, 0xfe, 0xff, 0xff, 0x04, 0x00, 0x00, 0x00, 0x40, 0x00, 0x00, 0x00,
  0x66, 0x78, 0x97, 0xbf, 0xf4, 0x7f, 0x00, 0xbf, 0xd0, 0x47, 0x1c, 0xc0,
  0x87, 0x68, 0x3a, 0xbf, 0xad, 0xfb, 0x2d, 0xc0, 0x4c, 0xd7, 0x02, 0xbf,
  0xa9, 0xdd, 0x85, 0x40, 0xbc, 0xfb, 0x05, 0x3f, 0xb9, 0x10, 0x21, 0x40,
  0x3f, 0x7f, 0xb9, 0xbf, 0x03, 0x82, 0x1e, 0xc0, 0xde, 0xd9, 0x5d, 0x40,
  0x98, 0x6c, 0x9a, 0x40, 0xc9, 0xb4, 0x91, 0x3f, 0xd9, 0x14, 0x15, 0x3f,
  0xed, 0x10, 0x03, 0x40, 0xca, 0xfe, 0xff, 0xff, 0x10, 0x00, 0x00, 0x00,
  0x04, 0x00, 0x00, 0x00, 0x10, 0x00, 0x00, 0x00, 0x44, 0x00, 0x00, 0x00,
  0x01, 0x00, 0x00, 0x00, 0x10, 0x00, 0x00, 0x00, 0x30, 0x00, 0x00, 0x00,
  0x73, 0x65, 0x71, 0x75, 0x65, 0x6e, 0x74, 0x69, 0x61, 0x6c, 0x2f, 0x64,
  0x65, 0x6e, 0x73, 0x65, 0x2f, 0x42, 0x69, 0x61, 0x73, 0x41, 0x64, 0x64,
  0x2f, 0x52, 0x65, 0x61, 0x64, 0x56, 0x61, 0x72, 0x69, 0x61, 0x62, 0x6c,
  0x65, 0x4f, 0x70, 0x2f, 0x72, 0x65, 0x73, 0x6f, 0x75, 0x72, 0x63, 0x65,
  0x00, 0x00, 0x00, 0x00, 0x4c, 0xfe, 0xff, 0xff, 0x56, 0xff, 0xff, 0xff,
  0x04, 0x00, 0x00, 0x00, 0x40, 0x00, 0x00, 0x00, 0xa6, 0x26, 0x9d, 0xbf,
  0xa2, 0x95, 0x88, 0x3f, 0x43, 0x3a, 0xe3, 0xbf, 0xa8, 0xbc, 0xb2, 0xbf,
  0x65, 0x66, 0x15, 0xc0, 0xe4, 0x5f, 0x64, 0xbf, 0xea, 0x2d, 0x14, 0xc0,
  0x51, 0x22, 0x28, 0x3f, 0x3a, 0xfa, 0x01, 0xbc, 0x5d, 0x2e, 0x4e, 0x40,
  0x6c, 0x84, 0x8e, 0xbd, 0xc4, 0xb5, 0x0a, 0xc0, 0xcb, 0x75, 0xd9, 0x40,
  0x34, 0xc8, 0x9a, 0x40, 0x43, 0x02, 0x44, 0x3f, 0x66, 0xfe, 0x6e, 0xbf,
  0x6e, 0xff, 0xff, 0xff, 0x10, 0x00, 0x00, 0x00, 0x03, 0x00, 0x00, 0x00,
  0x10, 0x00, 0x00, 0x00, 0x48, 0x00, 0x00, 0x00, 0x01, 0x00, 0x00, 0x00,
  0x10, 0x00, 0x00, 0x00, 0x33, 0x00, 0x00, 0x00, 0x73, 0x65, 0x71, 0x75,
  0x65, 0x6e, 0x74, 0x69, 0x61, 0x6c, 0x2f, 0x63, 0x6f, 0x6e, 0x76, 0x32,
  0x64, 0x5f, 0x31, 0x2f, 0x42, 0x69, 0x61, 0x73, 0x41, 0x64, 0x64, 0x2f,
  0x52, 0x65, 0x61, 0x64, 0x56, 0x61, 0x72, 0x69, 0x61, 0x62, 0x6c, 0x65,
  0x4f, 0x70, 0x2f, 0x72, 0x65, 0x73, 0x6f, 0x75, 0x72, 0x63, 0x65, 0x00,
  0x04, 0x00, 0x06, 0x00, 0x04, 0x00, 0x00, 0x00, 0x00, 0x00, 0x06, 0x00,
  0x08, 0x00, 0x04, 0x00, 0x06, 0x00, 0x00, 0x00, 0x04, 0x00, 0x00, 0x00,
  0x20, 0x00, 0x00, 0x00, 0x66, 0x36, 0x1e, 0xbf, 0xb0, 0x6e, 0x37, 0xc0,
  0x2f, 0x3b, 0x11, 0xc0, 0xdd, 0xac, 0xb4, 0x3e, 0xcf, 0x50, 0x07, 0xc0,
  0x95, 0xa8, 0x54, 0xbe, 0xcd, 0xd3, 0x38, 0xbd, 0x92, 0x0d, 0x50, 0xc0,
  0x00, 0x00, 0x0e, 0x00, 0x14, 0x00, 0x04, 0x00, 0x00, 0x00, 0x08, 0x00,
  0x0c, 0x00, 0x10, 0x00, 0x0e, 0x00, 0x00, 0x00, 0x10, 0x00, 0x00, 0x00,
  0x02, 0x00, 0x00, 0x00, 0x10, 0x00, 0x00, 0x00, 0x44, 0x00, 0x00, 0x00,
  0x01, 0x00, 0x00, 0x00, 0x08, 0x00, 0x00, 0x00, 0x31, 0x00, 0x00, 0x00,
  0x73, 0x65, 0x71, 0x75, 0x65, 0x6e, 0x74, 0x69, 0x61, 0x6c, 0x2f, 0x63,
  0x6f, 0x6e, 0x76, 0x32, 0x64, 0x2f, 0x42, 0x69, 0x61, 0x73, 0x41, 0x64,
  0x64, 0x2f, 0x52, 0x65, 0x61, 0x64, 0x56, 0x61, 0x72, 0x69, 0x61, 0x62,
  0x6c, 0x65, 0x4f, 0x70, 0x2f, 0x72, 0x65, 0x73, 0x6f, 0x75, 0x72, 0x63,
  0x65, 0x00, 0x00, 0x00, 0x90, 0xff, 0xff, 0xff, 0x14, 0x00, 0x18, 0x00,
  0x04, 0x00, 0x00, 0x00, 0x08, 0x00, 0x0c, 0x00, 0x10, 0x00, 0x00, 0x00,
  0x00, 0x00, 0x14, 0x00, 0x14, 0x00, 0x00, 0x00, 0x14, 0x00, 0x00, 0x00,
  0x01, 0x00, 0x00, 0x00, 0x20, 0x00, 0x00, 0x00, 0x44, 0x00, 0x00, 0x00,
  0x2c, 0x00, 0x00, 0x00, 0x04, 0x00, 0x00, 0x00, 0x01, 0x00, 0x00, 0x00,
  0x40, 0x00, 0x00, 0x00, 0x03, 0x00, 0x00, 0x00, 0x01, 0x00, 0x00, 0x00,
  0x0c, 0x00, 0x00, 0x00, 0x63, 0x6f, 0x6e, 0x76, 0x32, 0x64, 0x5f, 0x69,
  0x6e, 0x70, 0x75, 0x74, 0x00, 0x00, 0x00, 0x00, 0x04, 0x00, 0x00, 0x00,
  0xff, 0xff, 0xff, 0xff, 0x40, 0x00, 0x00, 0x00, 0x03, 0x00, 0x00, 0x00,
  0x01, 0x00, 0x00, 0x00, 0xfc, 0xff, 0xff, 0xff, 0x04, 0x00, 0x04, 0x00,
  0x04, 0x00, 0x00, 0x00
};

unsigned int model_tflite_len = 13120;// Fill the int in `src/model.cc` here
